unsigned char model[] = {
  0x1c, 0x00, 0x00, 0x00, 0x54, 0x46, 0x4c, 0x33, 0x00, 0x00, 0x12, 0x00,
  0x1c, 0x00, 0x04, 0x00, 0x08, 0x00, 0x0c, 0x00, 0x10, 0x00, 0x14, 0x00,
  0x00, 0x00, 0x18, 0x00, 0x12, 0x00, 0x00, 0x00, 0x03, 0x00, 0x00, 0x00,
  0x1c, 0x69, 0x00, 0x00, 0x10, 0x00, 0x00, 0x00, 0x1c, 0x00, 0x00, 0x00,
  0x2c, 0x00, 0x00, 0x00, 0x0c, 0x00, 0x00, 0x00, 0x01, 0x00, 0x00, 0x00,
  0xe4, 0x00, 0x00, 0x00, 0x01, 0x00, 0x00, 0x00, 0xac, 0x00, 0x00, 0x00,
  0x0f, 0x00, 0x00, 0x00, 0x54, 0x4f, 0x43, 0x4f, 0x20, 0x43, 0x6f, 0x6e,
  0x76, 0x65, 0x72, 0x74, 0x65, 0x64, 0x2e, 0x00, 0x0d, 0x00, 0x00, 0x00,
  0x80, 0x00, 0x00, 0x00, 0x74, 0x00, 0x00, 0x00, 0x68, 0x00, 0x00, 0x00,
  0x5c, 0x00, 0x00, 0x00, 0x50, 0x00, 0x00, 0x00, 0x44, 0x00, 0x00, 0x00,
  0x3c, 0x00, 0x00, 0x00, 0x34, 0x00, 0x00, 0x00, 0x2c, 0x00, 0x00, 0x00,
  0x20, 0x00, 0x00, 0x00, 0x18, 0x00, 0x00, 0x00, 0x10, 0x00, 0x00, 0x00,
  0x04, 0x00, 0x00, 0x00, 0x2a, 0x98, 0xff, 0xff, 0x4c, 0x00, 0x00, 0x00,
  0xf0, 0x97, 0xff, 0xff, 0xf4, 0x97, 0xff, 0xff, 0x3a, 0x98, 0xff, 0xff,
  0x9c, 0x01, 0x00, 0x00, 0x00, 0x98, 0xff, 0xff, 0x04, 0x98, 0xff, 0xff,
  0x08, 0x98, 0xff, 0xff, 0x4e, 0x98, 0xff, 0xff, 0xa8, 0x5c, 0x00, 0x00,
  0x56, 0x98, 0xff, 0xff, 0x80, 0x5d, 0x00, 0x00, 0x5e, 0x98, 0xff, 0xff,
  0xc0, 0x65, 0x00, 0x00, 0x66, 0x98, 0xff, 0xff, 0x40, 0x66, 0x00, 0x00,
  0x6e, 0x98, 0xff, 0xff, 0xb0, 0x66, 0x00, 0x00, 0x34, 0x98, 0xff, 0xff,
  0x05, 0x00, 0x00, 0x00, 0x31, 0x2e, 0x35, 0x2e, 0x30, 0x00, 0x00, 0x00,
  0xf4, 0xa3, 0xff, 0xff, 0x08, 0x00, 0x00, 0x00, 0x0c, 0x00, 0x00, 0x00,
  0x13, 0x00, 0x00, 0x00, 0x6d, 0x69, 0x6e, 0x5f, 0x72, 0x75, 0x6e, 0x74,
  0x69, 0x6d, 0x65, 0x5f, 0x76, 0x65, 0x72, 0x73, 0x69, 0x6f, 0x6e, 0x00,
  0x0c, 0x00, 0x14, 0x00, 0x04, 0x00, 0x08, 0x00, 0x0c, 0x00, 0x10, 0x00,
  0x0c, 0x00, 0x00, 0x00, 0x20, 0x00, 0x00, 0x00, 0x14, 0x00, 0x00, 0x00,
  0x08, 0x00, 0x00, 0x00, 0xe0, 0x66, 0x00, 0x00, 0x01, 0x00, 0x00, 0x00,
  0x00, 0x00, 0x00, 0x00, 0x01, 0x00, 0x00, 0x00, 0x01, 0x00, 0x00, 0x00,
  0x0b, 0x00, 0x00, 0x00, 0x6c, 0x00, 0x00, 0x00, 0x80, 0x5b, 0x00, 0x00,
  0x98, 0x00, 0x00, 0x00, 0xcc, 0x5b, 0x00, 0x00, 0xf0, 0x5a, 0x00, 0x00,
  0x8c, 0x5c, 0x00, 0x00, 0xe8, 0x64, 0x00, 0x00, 0x10, 0x00, 0x00, 0x00,
  0x20, 0x5b, 0x00, 0x00, 0xc4, 0x65, 0x00, 0x00, 0x60, 0x65, 0x00, 0x00,
  0x52, 0x9a, 0xff, 0xff, 0x10, 0x00, 0x00, 0x00, 0x0b, 0x00, 0x00, 0x00,
  0x14, 0x00, 0x00, 0x00, 0x2c, 0x00, 0x00, 0x00, 0x02, 0x00, 0x00, 0x00,
  0x01, 0x00, 0x00, 0x00, 0x10, 0x00, 0x00, 0x00, 0x17, 0x00, 0x00, 0x00,
  0x73, 0x65, 0x71, 0x75, 0x65, 0x6e, 0x74, 0x69, 0x61, 0x6c, 0x2f, 0x64,
  0x65, 0x6e, 0x73, 0x65, 0x5f, 0x31, 0x2f, 0x52, 0x65, 0x6c, 0x75, 0x00,
  0x04, 0x99, 0xff, 0xff, 0x92, 0x9a, 0xff, 0xff, 0x10, 0x00, 0x00, 0x00,
  0x0a, 0x00, 0x00, 0x00, 0x14, 0x00, 0x00, 0x00, 0x20, 0x00, 0x00, 0x00,
  0x02, 0x00, 0x00, 0x00, 0x01, 0x00, 0x00, 0x00, 0x02, 0x00, 0x00, 0x00,
  0x08, 0x00, 0x00, 0x00, 0x49, 0x64, 0x65, 0x6e, 0x74, 0x69, 0x74, 0x79,
  0x00, 0x00, 0x00, 0x00, 0x38, 0x99, 0xff, 0xff, 0xc6, 0x9a, 0xff, 0xff,
  0x10, 0x00, 0x00, 0x00, 0x09, 0x00, 0x00, 0x00, 0x14, 0x00, 0x00, 0x00,
  0x48, 0x00, 0x00, 0x00, 0x02, 0x00, 0x00, 0x00, 0x20, 0x00, 0x00, 0x00,
  0xb4, 0x00, 0x00, 0x00, 0x30, 0x00, 0x00, 0x00, 0x73, 0x65, 0x71, 0x75,
  0x65, 0x6e, 0x74, 0x69, 0x61, 0x6c, 0x2f, 0x64, 0x65, 0x6e, 0x73, 0x65,
  0x2f, 0x4d, 0x61, 0x74, 0x4d, 0x75, 0x6c, 0x2f, 0x52, 0x65, 0x61, 0x64,
  0x56, 0x61, 0x72, 0x69, 0x61, 0x62, 0x6c, 0x65, 0x4f, 0x70, 0x2f, 0x74,
  0x72, 0x61, 0x6e, 0x73, 0x70, 0x6f, 0x73, 0x65, 0x00, 0x00, 0x00, 0x00,
  0x94, 0x99, 0xff, 0xff, 0x00, 0x5a, 0x00, 0x00, 0x64, 0x51, 0xa9, 0xbb,
  0xb0, 0x45, 0xda, 0x3d, 0x13, 0xf9, 0x2f, 0x3e, 0x2b, 0xc3, 0x37, 0x3e,
  0x75, 0x3e, 0x10, 0x3c, 0x25, 0x72, 0x19, 0xbe, 0xf5, 0x59, 0x18, 0x3e,
  0x39, 0x2f, 0x00, 0xbe, 0x8e, 0x03, 0x0f, 0x3e, 0xf2, 0x99, 0x20, 0xbe,
  0x96, 0x3c, 0x2e, 0xbd, 0x99, 0x33, 0x8f, 0x3d, 0x93, 0x91, 0x05, 0xbe,
  0xb6, 0x48, 0x0c, 0x3d, 0x1e, 0x8d, 0xd8, 0x3d, 0xde, 0xad, 0x21, 0xbe,
  0x99, 0x13, 0x38, 0x3e, 0x98, 0x3c, 0xc3, 0xbc, 0xa7, 0x40, 0xe3, 0xbd,
  0x14, 0x3a, 0x10, 0xbd, 0x06, 0xb6, 0x6c, 0x3e, 0x8f, 0xca, 0x2b, 0x3e,
  0x92, 0x5f, 0xef, 0xbd, 0xe2, 0x91, 0x13, 0xbd, 0x8b, 0x4b, 0xb3, 0x3d,
  0x1f, 0x93, 0x7e, 0xbc, 0xa6, 0x44, 0x0d, 0x3e, 0x28, 0xad, 0x1a, 0x3b,
  0x15, 0x31, 0x5a, 0x3d, 0x51, 0x71, 0x4c, 0x3d, 0xf3, 0x18, 0xde, 0xbc,
  0x2e, 0x17, 0xcf, 0x3d, 0xcd, 0x61, 0xd7, 0x3d, 0x46, 0xa7, 0x01, 0xbd,
  0x42, 0x66, 0xcc, 0xbd, 0x58, 0x9b, 0xd1, 0xbd, 0x55, 0xab, 0xc7, 0xbd,
  0x3a, 0x4f, 0xd4, 0x3d, 0xe6, 0x09, 0x0e, 0xbd, 0xc3, 0x18, 0x2a, 0x3e,
  0xc7, 0x71, 0x0c, 0xbe, 0xe4, 0x6e, 0xd7, 0x3d, 0xba, 0x4f, 0xc7, 0xbc,
  0xff, 0xf3, 0x00, 0x3e, 0x99, 0x3d, 0x87, 0x3e, 0x25, 0x37, 0xfa, 0x3c,
  0xe4, 0x77, 0xe8, 0xbd, 0xe3, 0x04, 0xbe, 0xbd, 0x14, 0x01, 0xbc, 0xbd,
  0x40, 0xd2, 0xc3, 0xbc, 0x62, 0x73, 0x45, 0x3e, 0x75, 0x53, 0x0b, 0xbe,
  0x25, 0x50, 0xf7, 0x3d, 0x00, 0x2f, 0x31, 0x3e, 0x6f, 0x46, 0x71, 0x3d,
  0xd9, 0x35, 0x06, 0x3e, 0x5b, 0x2a, 0x49, 0x3d, 0x62, 0xf3, 0xba, 0x3d,
  0x30, 0x90, 0xe5, 0x3c, 0xce, 0xca, 0x2b, 0xbc, 0xa9, 0x87, 0x1e, 0xbd,
  0xfd, 0x8c, 0x0e, 0x3e, 0x9c, 0xbb, 0x69, 0x3e, 0xa9, 0x12, 0x31, 0x3e,
  0x1d, 0xa4, 0x0f, 0x3d, 0x07, 0xe9, 0xb4, 0x3d, 0xe3, 0xbd, 0x35, 0xbe,
  0x14, 0xb7, 0x37, 0x3e, 0xc6, 0xd4, 0xc6, 0x3d, 0xfe, 0x03, 0xea, 0xbd,
  0xb9, 0xc8, 0x35, 0x3e, 0xc0, 0x65, 0xc9, 0xbd, 0x6e, 0xed, 0x74, 0x3d,
  0x17, 0x2f, 0x22, 0x3d, 0x31, 0xc2, 0x72, 0x3e, 0xd9, 0x2f, 0xf9, 0x3d,
  0x22, 0x1d, 0x2f, 0xbd, 0x02, 0x87, 0x75, 0x3d, 0x0e, 0x44, 0xc3, 0x3c,
  0x57, 0xb0, 0x26, 0x3e, 0x5b, 0xed, 0xc9, 0x3d, 0x13, 0x5d, 0x0e, 0x3e,
  0x8d, 0x9e, 0x63, 0xbd, 0x05, 0xe3, 0x05, 0xbe, 0x9e, 0x0a, 0x18, 0xbd,
  0xf3, 0x9f, 0xa1, 0x3e, 0xce, 0x19, 0x60, 0x3e, 0x07, 0x5d, 0x68, 0xbc,
  0xd9, 0xc8, 0x23, 0x3e, 0x52, 0x72, 0x8a, 0x3d, 0x67, 0x88, 0x92, 0x3d,
  0x2d, 0xfc, 0x37, 0x3d, 0x20, 0xe6, 0xe3, 0x3c, 0xe3, 0x30, 0x3a, 0x3c,
  0xd0, 0x4d, 0xec, 0x3d, 0xa8, 0x29, 0xd3, 0xbd, 0xbf, 0x26, 0x13, 0xbe,
  0xde, 0x9d, 0xb2, 0x3e, 0x6e, 0x21, 0x4b, 0x3e, 0xf8, 0xc4, 0x8a, 0x3d,
  0xc6, 0x07, 0xfa, 0xbd, 0x4f, 0xaf, 0x66, 0xbd, 0x91, 0x3b, 0xa2, 0xbd,
  0x8b, 0xa4, 0xb1, 0x3e, 0x2d, 0xda, 0x8b, 0x3e, 0x8e, 0xbd, 0xb1, 0x3d,
  0xe1, 0x0d, 0x58, 0x3e, 0xb1, 0xc8, 0xb4, 0xbd, 0x04, 0xa8, 0xd2, 0x3c,
  0x81, 0xad, 0x88, 0x3e, 0xda, 0x53, 0x6e, 0x3d, 0xf8, 0x47, 0x12, 0x3e,
  0xa0, 0xe5, 0x83, 0x3d, 0xa7, 0x48, 0xe7, 0x3d, 0x25, 0x7a, 0xb7, 0xbd,
  0xd7, 0xe9, 0x29, 0x3e, 0x35, 0x57, 0x70, 0xbc, 0x9f, 0xa8, 0x3e, 0x3e,
  0x8b, 0xe1, 0xd1, 0x3c, 0x2d, 0xfd, 0x26, 0x3e, 0xba, 0x9a, 0xcf, 0xbd,
  0xa4, 0xd2, 0x4c, 0x3d, 0x43, 0x56, 0x70, 0x3d, 0x79, 0x59, 0xd3, 0xbc,
  0x8d, 0x78, 0x53, 0x3e, 0xce, 0x5a, 0x4b, 0xbd, 0x2b, 0xcc, 0x1d, 0x3e,
  0xa1, 0x14, 0x14, 0x3e, 0xc6, 0xf3, 0x70, 0x3e, 0x4a, 0x78, 0x50, 0xbc,
  0xe6, 0x36, 0x0c, 0x3e, 0x6b, 0x08, 0xf3, 0x3d, 0xd5, 0x02, 0xa4, 0x3b,
  0x68, 0x12, 0x4e, 0xba, 0x44, 0x04, 0x90, 0x3e, 0x95, 0x29, 0x41, 0x3e,
  0x06, 0x89, 0x60, 0x3c, 0xb5, 0x43, 0x6b, 0x3a, 0x6a, 0x91, 0x16, 0x3e,
  0xdf, 0x43, 0x64, 0xbc, 0xb7, 0xc1, 0x0b, 0x3e, 0x0b, 0xe2, 0x21, 0xbd,
  0xbc, 0xa2, 0xc2, 0xbd, 0x39, 0x42, 0x0d, 0xbe, 0xf3, 0x1f, 0x5b, 0x3b,
  0x1b, 0x2a, 0x77, 0x3e, 0x27, 0xd5, 0x44, 0x3e, 0x27, 0x76, 0xda, 0xbd,
  0x04, 0x38, 0xca, 0xbd, 0x35, 0x03, 0x01, 0xbe, 0xb3, 0x36, 0xa1, 0x3d,
  0x18, 0xfc, 0xb3, 0xbc, 0x94, 0x44, 0x23, 0x3e, 0x53, 0x5b, 0x16, 0x3e,
  0xec, 0xcc, 0x97, 0x3d, 0xad, 0xaf, 0x02, 0xbd, 0x1a, 0x95, 0x9a, 0xbd,
  0x14, 0xd5, 0x1e, 0x3e, 0xab, 0x2b, 0x15, 0x3e, 0x8d, 0xf1, 0xf2, 0x3d,
  0xb0, 0x7c, 0x04, 0x3e, 0x4c, 0x1c, 0x18, 0x3e, 0xd7, 0xe2, 0xd9, 0xbd,
  0xa0, 0xe2, 0x05, 0x3d, 0x24, 0xe6, 0x99, 0x3d, 0xaa, 0x0c, 0x0d, 0xbe,
  0x1a, 0x18, 0x0d, 0xbe, 0x14, 0xea, 0x38, 0x3e, 0x60, 0x27, 0x0b, 0x3e,
  0x11, 0x0a, 0x69, 0x3d, 0x6e, 0xe6, 0x80, 0x3e, 0x2c, 0xda, 0x71, 0x3d,
  0x6a, 0xae, 0xf6, 0x3d, 0xfa, 0x53, 0xc3, 0x3d, 0xce, 0xa4, 0x3d, 0x3d,
  0xc1, 0x66, 0x82, 0x3e, 0x41, 0x64, 0x88, 0x3e, 0xfa, 0x63, 0x0f, 0xbe,
  0x54, 0x47, 0x13, 0xbe, 0xb8, 0x21, 0x51, 0x3d, 0xbc, 0x2e, 0x06, 0x3e,
  0xd4, 0x4d, 0xcb, 0x3d, 0xb7, 0x15, 0x3f, 0xbd, 0x26, 0x18, 0xa4, 0xbc,
  0xff, 0x92, 0x9e, 0x3c, 0xec, 0x0c, 0x88, 0xbc, 0x99, 0x5b, 0x0e, 0xbe,
  0x9c, 0x77, 0xfa, 0x3d, 0xf6, 0xd6, 0xe9, 0x3d, 0x09, 0x00, 0x19, 0x3e,
  0x0a, 0x0c, 0x25, 0xbd, 0x12, 0x98, 0x99, 0x3c, 0x0c, 0x19, 0x35, 0xbd,
  0xe3, 0xa2, 0x55, 0x3e, 0x65, 0xe2, 0xa1, 0xbc, 0x0b, 0x12, 0x01, 0x3e,
  0xee, 0xe6, 0x8d, 0xbd, 0xa6, 0xf3, 0xd6, 0x3b, 0x31, 0x06, 0x06, 0x3e,
  0x8e, 0xb0, 0x2c, 0x3c, 0x19, 0x05, 0x69, 0x3c, 0x21, 0xab, 0x26, 0x3d,
  0xcb, 0x48, 0xca, 0x3d, 0x43, 0x81, 0xd2, 0x3d, 0x94, 0x47, 0x43, 0xbd,
  0xd2, 0xeb, 0x42, 0x3e, 0x75, 0xc4, 0x4a, 0xbe, 0xc9, 0xe7, 0x8e, 0x3d,
  0x28, 0xcb, 0x0e, 0x3e, 0xb4, 0xa5, 0xc3, 0x3d, 0xa4, 0xbb, 0x2b, 0x3c,
  0x84, 0x80, 0xf4, 0x3d, 0x9d, 0x91, 0x83, 0xbd, 0xc3, 0xe6, 0xdf, 0xbd,
  0xdb, 0xda, 0xc5, 0xbc, 0xe1, 0xcf, 0x0b, 0x3e, 0x02, 0xd5, 0x51, 0x3e,
  0x19, 0xe7, 0x00, 0x3e, 0x1c, 0x5f, 0xb4, 0xbc, 0x11, 0x92, 0xaa, 0xbd,
  0x6b, 0x15, 0x96, 0x3d, 0x93, 0x30, 0x5a, 0x3e, 0x6c, 0x5d, 0xe3, 0x3d,
  0x35, 0x4a, 0xa4, 0xbd, 0x8e, 0x5d, 0x83, 0xbe, 0xbc, 0x36, 0x1d, 0x3d,
  0x97, 0x6f, 0x1b, 0x3e, 0x1c, 0x66, 0x51, 0x3e, 0x9c, 0x50, 0x4a, 0x3e,
  0xcf, 0x1f, 0x63, 0xbd, 0x21, 0x72, 0xf1, 0xbd, 0x4d, 0xc9, 0x05, 0x3e,
  0xbb, 0x83, 0x43, 0x3e, 0x77, 0x49, 0x03, 0x3e, 0x22, 0x2a, 0x3a, 0x3e,
  0xc2, 0x02, 0x19, 0xbe, 0x0f, 0xbd, 0xec, 0x3c, 0x7e, 0x82, 0x4f, 0xbd,
  0x1b, 0xa8, 0x92, 0xbd, 0x49, 0x43, 0xb5, 0xbb, 0x14, 0x01, 0x78, 0x3d,
  0xd6, 0x6e, 0xf6, 0xbd, 0x71, 0xfd, 0xcd, 0xbd, 0xeb, 0x04, 0x48, 0x3e,
  0x4b, 0x42, 0xb5, 0xbd, 0xa6, 0xb4, 0x22, 0xbd, 0x52, 0x59, 0xa7, 0x3c,
  0x70, 0x53, 0x2f, 0x3d, 0xef, 0xfd, 0xaa, 0x3d, 0xa3, 0x6e, 0x36, 0x3d,
  0x89, 0x9c, 0x92, 0xbd, 0x63, 0xa8, 0x49, 0x3e, 0x5a, 0xc2, 0x4a, 0x3e,
  0x5a, 0x73, 0x06, 0x3d, 0xfd, 0xa9, 0xcc, 0x3d, 0x98, 0xd8, 0x5b, 0x3e,
  0xa6, 0xd9, 0xe3, 0xbd, 0x0f, 0x43, 0xfa, 0x3d, 0xae, 0xee, 0x71, 0x3e,
  0xf6, 0xf4, 0x20, 0xbc, 0x29, 0x2e, 0x5f, 0xbd, 0x4c, 0xff, 0xe7, 0xbc,
  0x13, 0xf4, 0x52, 0x3d, 0xd9, 0x82, 0x90, 0x3d, 0xf2, 0x45, 0xc3, 0x3d,
  0xff, 0x97, 0x91, 0xbe, 0xe8, 0x43, 0x5d, 0xbe, 0x9b, 0x63, 0x81, 0xbd,
  0x68, 0x55, 0xee, 0x3d, 0xca, 0xc8, 0x2b, 0xba, 0x82, 0xd0, 0x77, 0xbd,
  0xf5, 0x05, 0xb5, 0xbd, 0x49, 0xd6, 0x6f, 0xbe, 0x1f, 0x35, 0x9e, 0xbc,
  0x99, 0x36, 0xac, 0xbd, 0x81, 0xb8, 0x44, 0x3d, 0xf5, 0x2e, 0x2e, 0xbd,
  0xdc, 0xd3, 0x5a, 0xbe, 0xf5, 0x30, 0x2c, 0xbe, 0x91, 0xc8, 0xe3, 0xbd,
  0x8d, 0x2c, 0x03, 0xbe, 0x33, 0x6a, 0xa5, 0xbd, 0xf4, 0x0d, 0x5a, 0xbd,
  0x59, 0xcd, 0x8c, 0xbe, 0x6f, 0xea, 0x03, 0x3c, 0x68, 0x3b, 0xa5, 0xbd,
  0x67, 0x8e, 0xe6, 0xbd, 0x68, 0xec, 0xdb, 0x3d, 0xfc, 0x33, 0x52, 0x3d,
  0xb4, 0x2a, 0xb7, 0xbd, 0x23, 0xed, 0x24, 0xbe, 0x9e, 0xda, 0xff, 0x3c,
  0x02, 0x08, 0x87, 0xbd, 0xd1, 0x21, 0x2f, 0xbc, 0x86, 0x9b, 0xdb, 0x3c,
  0x8e, 0x1f, 0xfd, 0xbc, 0x91, 0x99, 0x3a, 0xbe, 0xd4, 0xae, 0xc5, 0xba,
  0x93, 0x8b, 0x32, 0x3e, 0xec, 0xb4, 0x2c, 0x3e, 0x44, 0x41, 0xd2, 0xbd,
  0xb8, 0x34, 0x44, 0xbe, 0x05, 0xb7, 0x30, 0x3d, 0x29, 0x3b, 0xe3, 0xbd,
  0xbb, 0x4b, 0x16, 0x3e, 0xb6, 0x60, 0xb4, 0xbd, 0x0e, 0xad, 0xf0, 0x3c,
  0x75, 0x88, 0xeb, 0xbd, 0xa0, 0xf7, 0xfe, 0xbd, 0xc6, 0x3b, 0x4e, 0x3e,
  0x2c, 0xe6, 0x17, 0x3e, 0x33, 0xad, 0xd2, 0x3d, 0x51, 0x25, 0x0f, 0x3e,
  0xa1, 0xa3, 0x0b, 0xbe, 0xe5, 0xf0, 0x1a, 0xbe, 0x2d, 0x90, 0xd6, 0x3d,
  0x0e, 0xb3, 0xbe, 0xbd, 0x40, 0x22, 0x87, 0xbd, 0x82, 0xe3, 0x10, 0xbd,
  0x5b, 0x03, 0x1c, 0xbd, 0xa6, 0x42, 0xa9, 0xbd, 0x4a, 0xe2, 0xc2, 0x3d,
  0x08, 0x9f, 0x09, 0x3d, 0xf4, 0xf1, 0xed, 0x3c, 0x79, 0xf8, 0xdf, 0xbd,
  0x07, 0x16, 0x20, 0xbe, 0x6e, 0xfb, 0x93, 0xbe, 0x62, 0x2f, 0xfe, 0xbc,
  0x83, 0xf3, 0x1b, 0x3d, 0x43, 0x93, 0x35, 0x3d, 0x61, 0x92, 0xf7, 0x3d,
  0x45, 0x1f, 0x62, 0xbe, 0xc7, 0x7a, 0x96, 0xbe, 0x88, 0x29, 0x17, 0x3e,
  0x87, 0x8f, 0xa5, 0xbd, 0xb4, 0xf1, 0x32, 0x3e, 0x00, 0xa1, 0x1e, 0x3e,
  0x21, 0xb9, 0xda, 0x3d, 0xf5, 0xb0, 0xf0, 0xbc, 0xc7, 0xc7, 0x12, 0x3e,
  0xce, 0xb7, 0x0e, 0xba, 0x10, 0xf9, 0x19, 0x3e, 0xad, 0x82, 0xa2, 0x3d,
  0xf1, 0x11, 0xcc, 0x3d, 0xb8, 0x77, 0x1e, 0xbe, 0x62, 0x98, 0x5e, 0xbc,
  0x1e, 0x11, 0xb7, 0xbd, 0x9c, 0x72, 0x09, 0x3e, 0x2e, 0xf2, 0x0e, 0x3e,
  0xfc, 0x6a, 0x54, 0xbe, 0x03, 0x62, 0x5e, 0xbe, 0x6b, 0x92, 0x47, 0x3d,
  0x4a, 0x51, 0xc2, 0x3c, 0x94, 0xb4, 0x86, 0xbc, 0xbd, 0x47, 0xcf, 0xbb,
  0x79, 0x10, 0x3b, 0xbd, 0xac, 0xae, 0x96, 0xbe, 0xda, 0x9c, 0x07, 0x3e,
  0xe5, 0xd4, 0x94, 0xbc, 0x2a, 0x61, 0x8c, 0xbd, 0xac, 0x23, 0x35, 0x3d,
  0x5c, 0x19, 0x98, 0x3d, 0x73, 0x80, 0x22, 0xbe, 0x16, 0x2a, 0xc6, 0x3d,
  0xd8, 0x37, 0x6d, 0x3d, 0x1c, 0x99, 0x37, 0x3d, 0x74, 0x9f, 0x2b, 0xbe,
  0x7e, 0x4c, 0xcf, 0x3d, 0xbe, 0x26, 0xac, 0x3d, 0x03, 0xa7, 0x1e, 0x3e,
  0x9e, 0x16, 0xe0, 0x3d, 0x92, 0xe3, 0x94, 0x3d, 0x80, 0x13, 0xad, 0x3b,
  0x58, 0x03, 0x0a, 0x3d, 0x10, 0xb4, 0x1a, 0x3c, 0x72, 0x3e, 0xa3, 0xbd,
  0xe6, 0x28, 0xc2, 0x3d, 0x20, 0xb5, 0xe0, 0xbc, 0x10, 0xfa, 0x2f, 0xbc,
  0x53, 0x74, 0xe4, 0xbd, 0xe0, 0x94, 0x68, 0x3c, 0x87, 0x67, 0xb5, 0xbd,
  0x13, 0x96, 0x0e, 0xbe, 0xe0, 0x34, 0x30, 0xbd, 0x38, 0x97, 0xcb, 0xbd,
  0x00, 0xe2, 0x2e, 0xbc, 0xa0, 0x2d, 0x08, 0x3c, 0xbc, 0x69, 0xd2, 0xbd,
  0xd4, 0x43, 0x13, 0x3d, 0xc8, 0xff, 0x53, 0xbd, 0xa1, 0xd5, 0xc4, 0xbd,
  0x10, 0x82, 0x3b, 0x3c, 0xce, 0x07, 0xbe, 0x3d, 0xb8, 0x5c, 0xff, 0x3c,
  0xda, 0xa7, 0xeb, 0xbd, 0x10, 0xd8, 0xf9, 0xbc, 0x40, 0xe3, 0x7c, 0x3c,
  0xf4, 0x00, 0x19, 0xbe, 0x00, 0xe4, 0x9b, 0x39, 0x1a, 0x5e, 0xbd, 0x3d,
  0xe5, 0x3b, 0x85, 0xbd, 0x56, 0xd3, 0xcd, 0x3d, 0x9d, 0x39, 0x13, 0x3e,
  0xac, 0xae, 0x01, 0xbd, 0x60, 0xd1, 0xea, 0xbd, 0xe0, 0x8f, 0xf0, 0xbb,
  0xc4, 0xd7, 0x82, 0x3d, 0x08, 0xdb, 0x47, 0xbd, 0x56, 0x3e, 0x1a, 0xbe,
  0xd2, 0x86, 0xdc, 0xbd, 0x35, 0xbd, 0x09, 0xbe, 0x4a, 0x45, 0xab, 0xbd,
  0x80, 0x23, 0x5c, 0xbb, 0xa0, 0xf6, 0x23, 0xbc, 0x9c, 0x16, 0x79, 0xbd,
  0x08, 0x99, 0x1e, 0x3d, 0xf3, 0x14, 0x12, 0xbe, 0x88, 0x38, 0xde, 0xbc,
  0x36, 0xba, 0xc7, 0x3d, 0x88, 0x05, 0x37, 0x3d, 0x73, 0x4c, 0x28, 0x3e,
  0x62, 0x4c, 0x56, 0xbd, 0xbd, 0x1e, 0x9a, 0xbd, 0x57, 0xe9, 0xf9, 0xbd,
  0xdd, 0x2d, 0x11, 0x3e, 0xf0, 0xbf, 0xd5, 0xbc, 0x04, 0xb2, 0x20, 0x3d,
  0x75, 0x5e, 0x09, 0x3e, 0x90, 0x9a, 0x53, 0xbc, 0x1c, 0x43, 0x2c, 0xbe,
  0x00, 0xe0, 0x1d, 0x3b, 0xd4, 0xe8, 0x34, 0x3d, 0x50, 0xe9, 0xda, 0x3c,
  0x80, 0xf4, 0xd1, 0xbc, 0x76, 0xba, 0xcc, 0x3d, 0x00, 0x50, 0x9e, 0xbc,
  0xf9, 0xf3, 0x1a, 0xbe, 0x8c, 0xb7, 0xed, 0xbd, 0xcf, 0x39, 0x01, 0xbe,
  0x3a, 0x92, 0xe1, 0xbd, 0x87, 0x4c, 0x15, 0xbe, 0xb9, 0x3c, 0x08, 0xbe,
  0xc0, 0xfb, 0x67, 0xbd, 0xf1, 0x15, 0x0c, 0x3e, 0x94, 0x35, 0xa4, 0x3d,
  0xc6, 0x7c, 0x82, 0x3d, 0xe4, 0xd6, 0x09, 0xbd, 0x48, 0x80, 0xda, 0x3c,
  0x80, 0xf1, 0x10, 0xbc, 0x8e, 0x2e, 0xa4, 0x3d, 0xaa, 0x1b, 0xc1, 0x3d,
  0x7e, 0xc4, 0xe8, 0xbd, 0x0f, 0x11, 0x27, 0x3e, 0x61, 0x9f, 0x1e, 0x3e,
  0x56, 0xfc, 0x33, 0xbd, 0x26, 0xc7, 0x1f, 0xbe, 0xc7, 0x90, 0x05, 0xbe,
  0x11, 0x90, 0x17, 0x3e, 0xae, 0xd9, 0xcc, 0x3d, 0x10, 0x1a, 0xb4, 0xbc,
  0x5e, 0x37, 0xf8, 0x3d, 0xf1, 0xe4, 0x06, 0x3e, 0xd2, 0xa4, 0xf5, 0xbd,
  0xca, 0xf8, 0xf5, 0xbd, 0x98, 0x6b, 0xea, 0xbd, 0x1e, 0x20, 0xd6, 0xbd,
  0xac, 0x1b, 0x16, 0xbe, 0xc0, 0xd8, 0x42, 0xbb, 0x16, 0x3b, 0x80, 0xbd,
  0x22, 0x4f, 0xe5, 0x3d, 0x4d, 0x4a, 0x11, 0x3e, 0xb7, 0x4d, 0x02, 0x3e,
  0x17, 0x2b, 0x88, 0xbd, 0x10, 0xa6, 0x61, 0x3c, 0xf6, 0x6f, 0xa5, 0x3d,
  0xde, 0x2c, 0xc7, 0xbd, 0xa0, 0x45, 0x26, 0x3c, 0x6c, 0xa8, 0x3e, 0xbd,
  0x6e, 0xbd, 0xc2, 0xbd, 0x16, 0x19, 0xbe, 0xbd, 0x7e, 0xf2, 0xf2, 0x3d,
  0x87, 0x65, 0x8b, 0xbd, 0xba, 0xa2, 0x02, 0xbe, 0xee, 0x26, 0x88, 0x3d,
  0x6d, 0xc1, 0x04, 0x3e, 0x26, 0xf5, 0xf7, 0xbd, 0xb0, 0x3f, 0xea, 0x3c,
  0x39, 0x88, 0xdb, 0xbd, 0x4d, 0xb1, 0x29, 0xbe, 0xeb, 0xda, 0x02, 0x3e,
  0x46, 0x97, 0xaf, 0x3d, 0x80, 0xe4, 0x6d, 0x3b, 0x52, 0xcb, 0xea, 0xbd,
  0x67, 0x8d, 0x12, 0x3e, 0x21, 0xff, 0xaf, 0xbd, 0x28, 0x9b, 0xc8, 0x3c,
  0x70, 0xb9, 0x8a, 0x3c, 0x9c, 0xdc, 0x16, 0x3d, 0xb6, 0xf1, 0xec, 0xbd,
  0xe4, 0x16, 0x43, 0xbd, 0x86, 0xb1, 0x97, 0xbd, 0xdb, 0x62, 0xcb, 0xbd,
  0xe7, 0x5d, 0xb3, 0xbd, 0xf0, 0xa0, 0xd7, 0xbc, 0x5e, 0x17, 0xaf, 0x3d,
  0x6c, 0xba, 0x95, 0x3d, 0x7e, 0x93, 0xbd, 0x3d, 0x78, 0x3b, 0xe1, 0x3c,
  0x00, 0xd6, 0x95, 0xba, 0xf9, 0x58, 0xbb, 0xbd, 0x0f, 0x6c, 0xf4, 0xbd,
  0x1c, 0x08, 0xee, 0xbd, 0x80, 0x3b, 0xcd, 0x3c, 0x87, 0x3b, 0xa7, 0xbd,
  0x30, 0x9f, 0x6e, 0xbd, 0x92, 0x4d, 0xce, 0xbd, 0xa6, 0x1f, 0x9e, 0x3d,
  0xaa, 0xe3, 0xf0, 0x3d, 0xa0, 0x61, 0xf2, 0x3c, 0xc0, 0xd9, 0x0b, 0xbd,
  0xf8, 0x4e, 0xad, 0xbc, 0x06, 0x07, 0xbf, 0x3d, 0x1e, 0xba, 0xdc, 0x3d,
  0xb0, 0xaf, 0xf7, 0xbd, 0xd8, 0x9c, 0x0f, 0x3d, 0xf8, 0xd6, 0x22, 0x3d,
  0x51, 0x54, 0xba, 0xbd, 0x28, 0x47, 0xaa, 0xbd, 0x6e, 0x6f, 0xd8, 0xbd,
  0xbb, 0xb8, 0x00, 0x3e, 0x4e, 0x82, 0xe6, 0x3d, 0x60, 0x3c, 0xed, 0xbc,
  0x5e, 0xc1, 0x27, 0xbe, 0xd9, 0xa5, 0x00, 0x3e, 0xac, 0x3f, 0x69, 0x3d,
  0x00, 0xcc, 0x5e, 0xbb, 0x40, 0x7d, 0x03, 0x3b, 0xce, 0xeb, 0xc0, 0x3d,
  0x20, 0x58, 0x2a, 0xbe, 0xd9, 0x01, 0xa4, 0xbd, 0xda, 0x36, 0x29, 0xbe,
  0x16, 0xfb, 0xfe, 0x3d, 0x00, 0xad, 0x51, 0x3d, 0xba, 0x27, 0xdf, 0xbd,
  0x91, 0x89, 0x22, 0xbe, 0x00, 0x4c, 0x3d, 0x39, 0xaf, 0x34, 0x15, 0x3e,
  0xc3, 0x8f, 0x0f, 0x3e, 0x00, 0x65, 0xfe, 0xbc, 0xc0, 0xc5, 0xe1, 0xbd,
  0xd1, 0x4d, 0x11, 0xbe, 0xf6, 0x8e, 0x43, 0xbd, 0x00, 0x97, 0x0d, 0x3c,
  0x20, 0x12, 0x83, 0xbc, 0xe0, 0x9a, 0x55, 0xbc, 0xc8, 0x57, 0x0a, 0xbe,
  0x24, 0x84, 0xe1, 0xbd, 0x5a, 0xd4, 0xab, 0xbd, 0xe8, 0xff, 0xd4, 0x3c,
  0xad, 0x23, 0x1e, 0xbe, 0x09, 0x4b, 0x14, 0x3e, 0xd8, 0x60, 0x8b, 0x3c,
  0xea, 0x4c, 0xa6, 0x3d, 0x05, 0x33, 0x25, 0xbe, 0xe0, 0x02, 0x11, 0x3d,
  0x80, 0xc8, 0x18, 0x3c, 0x6c, 0x85, 0x1d, 0x3d, 0xe0, 0x5d, 0xc2, 0xbd,
  0x55, 0x50, 0x26, 0x3e, 0x69, 0xae, 0x1d, 0x3e, 0x00, 0xb0, 0xdf, 0xb9,
  0x2d, 0x6c, 0x1e, 0x3e, 0xf4, 0x5f, 0xcb, 0xbd, 0x58, 0xa4, 0xbf, 0xbd,
  0x2c, 0x2f, 0x52, 0xbd, 0x9e, 0x90, 0x88, 0x3d, 0x43, 0xa6, 0x17, 0x3e,
  0x3e, 0x45, 0x15, 0xbe, 0x09, 0x8d, 0x25, 0x3e, 0xd8, 0x28, 0xf5, 0xbc,
  0xe8, 0x93, 0xe9, 0xbc, 0x88, 0x6f, 0xf4, 0xbd, 0x60, 0x3c, 0xf2, 0xbc,
  0xa0, 0xa7, 0x83, 0xbc, 0x88, 0xe6, 0x71, 0xbd, 0x96, 0x5e, 0xe5, 0xbd,
  0xc0, 0x91, 0xe0, 0xbb, 0xb0, 0xae, 0xed, 0xbc, 0x80, 0x43, 0xdb, 0xbc,
  0xc0, 0x97, 0xe5, 0x3c, 0x67, 0x62, 0xfd, 0xbd, 0x60, 0xa3, 0xc8, 0xbd,
  0xdf, 0x23, 0x8a, 0xbd, 0x40, 0xb4, 0xed, 0xbd, 0xb8, 0x43, 0xc6, 0xbd,
  0xe0, 0x3c, 0x3e, 0xbc, 0x5d, 0x0a, 0x0d, 0x3e, 0x8a, 0xf8, 0xa8, 0x3d,
  0xcf, 0x9e, 0x09, 0x3e, 0xf2, 0x7a, 0x64, 0xbd, 0x24, 0xf2, 0x6a, 0x3d,
  0xe3, 0xbe, 0x26, 0x3e, 0xdc, 0x03, 0x1f, 0x3d, 0xe8, 0x8a, 0xc1, 0x3c,
  0x7c, 0x71, 0xca, 0xbd, 0x58, 0x15, 0x0e, 0xbe, 0x7a, 0x6e, 0xe8, 0x3d,
  0x18, 0x98, 0x5e, 0x3d, 0xd0, 0xfe, 0x26, 0xbd, 0x96, 0x23, 0xfa, 0x3d,
  0x30, 0xb8, 0x11, 0xbc, 0xb2, 0x0e, 0x27, 0xbe, 0x37, 0x90, 0x1e, 0x3e,
  0x7e, 0xb8, 0x82, 0xbd, 0x50, 0x5d, 0x33, 0xbc, 0xe0, 0x8d, 0x1e, 0xbd,
  0xf0, 0x0d, 0xa2, 0x3c, 0xae, 0xbc, 0xfe, 0x3d, 0x37, 0x10, 0x0d, 0x3e,
  0xbf, 0x11, 0x26, 0x3e, 0x98, 0x9f, 0x1e, 0xbd, 0x9c, 0x89, 0x6e, 0xbd,
  0x24, 0x2c, 0x13, 0xbe, 0xc2, 0x23, 0xf3, 0x3d, 0x1e, 0x04, 0xd0, 0x3d,
  0x00, 0xf0, 0x3e, 0xb8, 0x7c, 0x57, 0x92, 0x3d, 0xc0, 0x5f, 0x44, 0xbb,
  0x78, 0x94, 0x7c, 0x3d, 0x00, 0x1d, 0x19, 0x3d, 0x26, 0x76, 0xe3, 0x3d,
  0x4e, 0xa8, 0xe7, 0x3d, 0x3a, 0xfb, 0x93, 0x3d, 0xfc, 0xe3, 0x96, 0xbd,
  0xdb, 0x0f, 0xd8, 0xbd, 0x7b, 0x6e, 0xc1, 0xbd, 0x35, 0x00, 0xb1, 0xbd,
  0x50, 0x19, 0x63, 0xbc, 0x84, 0x33, 0x0a, 0xbe, 0x78, 0x37, 0x28, 0xbd,
  0xd9, 0xe2, 0x26, 0x3e, 0x9a, 0xf3, 0xff, 0x3d, 0x4d, 0xab, 0x21, 0xbe,
  0x71, 0x10, 0x1b, 0x3e, 0x1d, 0x1d, 0x04, 0x3e, 0x82, 0xab, 0xf1, 0xbd,
  0x4c, 0x5e, 0x5c, 0xbd, 0x37, 0xb2, 0x24, 0x3e, 0xfb, 0xfc, 0x0a, 0x3e,
  0xbc, 0x68, 0x4a, 0x3d, 0x79, 0x8a, 0x17, 0x3e, 0xbd, 0xcd, 0xa3, 0xbd,
  0xaf, 0x68, 0x2a, 0x3e, 0x26, 0x78, 0x8f, 0x3d, 0x36, 0x35, 0x26, 0xbe,
  0x58, 0x2b, 0x92, 0x3c, 0xde, 0x7d, 0xec, 0x3d, 0x4d, 0xd0, 0x0e, 0xbe,
  0xdc, 0xee, 0x20, 0xbe, 0x4a, 0xef, 0xd8, 0xbd, 0x1b, 0x1a, 0xb9, 0xbd,
  0x7d, 0x03, 0xf8, 0xbd, 0x5e, 0x89, 0x0f, 0xbe, 0xc4, 0x91, 0xb7, 0xbd,
  0x0a, 0xd1, 0xc0, 0xbd, 0x60, 0x1d, 0xc4, 0xbc, 0x66, 0x59, 0x8b, 0x3d,
  0x63, 0xa5, 0x21, 0x3e, 0xc0, 0x8c, 0xdf, 0xbd, 0x38, 0x6f, 0x24, 0xbd,
  0x18, 0x1f, 0xca, 0xbd, 0x40, 0x89, 0x3e, 0x3c, 0x1d, 0x73, 0x15, 0x3e,
  0x90, 0x71, 0x49, 0x3d, 0x0a, 0xc5, 0xce, 0xbd, 0x6c, 0x7b, 0x26, 0x3d,
  0xc0, 0x44, 0x36, 0x3c, 0x79, 0x4f, 0x0d, 0xbe, 0x2a, 0xfb, 0x9d, 0x3d,
  0xf5, 0xaa, 0x03, 0xbe, 0x4a, 0xfd, 0xce, 0xbd, 0x3c, 0x22, 0x76, 0x3d,
  0xf7, 0x2b, 0x22, 0xbe, 0xa6, 0x65, 0xb4, 0x3d, 0xf4, 0x2e, 0x58, 0xbd,
  0x9e, 0x6c, 0xe9, 0x3d, 0x71, 0xdc, 0x15, 0x3e, 0x40, 0xee, 0xe2, 0x3c,
  0xdb, 0x1f, 0x06, 0x3e, 0xae, 0x51, 0x05, 0xbe, 0xd8, 0x64, 0x1e, 0xbe,
  0x39, 0xf8, 0x11, 0xbe, 0xd3, 0x4d, 0x00, 0x3e, 0x17, 0xf0, 0x2a, 0xbe,
  0xd0, 0x42, 0xbd, 0x3c, 0x70, 0xa6, 0x4a, 0xbd, 0x32, 0xda, 0x23, 0xbe,
  0xcd, 0xdc, 0x17, 0xbe, 0xbc, 0xea, 0xd3, 0xbd, 0x60, 0x56, 0x2b, 0x3c,
  0x39, 0x4d, 0x21, 0x3e, 0xca, 0xad, 0x5c, 0xbd, 0x40, 0x43, 0x22, 0x3c,
  0x44, 0x20, 0x1b, 0xbd, 0x16, 0x2a, 0xd0, 0x3d, 0xc3, 0x9b, 0x0b, 0xbe,
  0x64, 0xa8, 0x4d, 0x3d, 0x05, 0x91, 0x23, 0x3e, 0x90, 0x45, 0x36, 0x3c,
  0x8e, 0x2b, 0x98, 0xbd, 0xb6, 0x01, 0x59, 0xbd, 0x46, 0x0b, 0xbf, 0xbd,
  0x0a, 0xa5, 0x10, 0xbe, 0x00, 0x43, 0x0c, 0x3c, 0x92, 0xce, 0xcc, 0x3d,
  0x56, 0x5c, 0xee, 0x3d, 0xfc, 0x38, 0x01, 0x3d, 0x72, 0x32, 0x78, 0xbd,
  0x24, 0x2c, 0x9b, 0x3d, 0x94, 0x32, 0x32, 0x3d, 0x89, 0x3f, 0x13, 0x3e,
  0xd1, 0x0d, 0xa9, 0xbd, 0x8c, 0x83, 0x37, 0x3e, 0xf8, 0xd3, 0x0a, 0xbe,
  0x27, 0xb9, 0x4c, 0x3d, 0x6f, 0xcb, 0x53, 0x3d, 0x9a, 0x22, 0xf3, 0xb8,
  0x80, 0x93, 0x63, 0xbe, 0x22, 0xf9, 0xdb, 0x3d, 0x96, 0xb4, 0xc8, 0xbd,
  0x57, 0x9f, 0xc4, 0xbd, 0x9f, 0x04, 0xda, 0xbd, 0x49, 0x03, 0x26, 0x3d,
  0x27, 0xd6, 0x74, 0xbc, 0x0e, 0x17, 0xef, 0x3c, 0x53, 0x75, 0x34, 0xbe,
  0x4e, 0x4b, 0x78, 0x3c, 0x72, 0x84, 0x29, 0xbd, 0xc0, 0xb2, 0x02, 0xbe,
  0x11, 0x58, 0xd0, 0x3c, 0x88, 0xea, 0x44, 0xbd, 0x79, 0x94, 0x1e, 0xbe,
  0x15, 0x40, 0x12, 0xbe, 0x51, 0xa5, 0xa9, 0xba, 0xda, 0x81, 0x11, 0xbe,
  0x93, 0x94, 0x2a, 0xbe, 0x95, 0x65, 0xb5, 0x3c, 0x22, 0x19, 0xaa, 0x3d,
  0xb2, 0xf1, 0x0e, 0xbe, 0x31, 0x50, 0xe2, 0x3d, 0x1b, 0x2d, 0x12, 0xbe,
  0xa6, 0x1b, 0x96, 0xbd, 0xa0, 0x13, 0xdb, 0x3c, 0x37, 0x33, 0xe3, 0x3c,
  0x60, 0xd5, 0x89, 0x3c, 0x33, 0x34, 0xd2, 0xbc, 0x14, 0x26, 0x94, 0x3c,
  0xd4, 0x50, 0xeb, 0xbd, 0x5c, 0xf8, 0x0e, 0xbb, 0x5e, 0x2b, 0x07, 0xbd,
  0xbd, 0x68, 0xc9, 0xbd, 0x18, 0x6e, 0xab, 0xbc, 0x74, 0x87, 0x1e, 0x3d,
  0x27, 0xd8, 0x36, 0x3e, 0x3a, 0x9d, 0x4b, 0x3e, 0xed, 0x52, 0x0e, 0xbd,
  0x61, 0xaa, 0x9f, 0xbb, 0xbc, 0x61, 0x82, 0xbc, 0x59, 0xfb, 0x58, 0xbb,
  0xde, 0x2d, 0xad, 0xbd, 0x9f, 0x03, 0x4f, 0x3e, 0x3d, 0x36, 0xe8, 0x3d,
  0xee, 0x24, 0x71, 0xbc, 0x36, 0xe1, 0x8f, 0xbd, 0x51, 0x4f, 0x8b, 0xbd,
  0x57, 0x04, 0x44, 0x3e, 0x93, 0x6b, 0x75, 0x3d, 0x52, 0x8e, 0x80, 0xbd,
  0x21, 0x71, 0x96, 0xba, 0x2e, 0xd6, 0x46, 0x3d, 0x22, 0x31, 0x06, 0xbe,
  0xb1, 0x77, 0xc4, 0xbc, 0xa4, 0x8c, 0xcb, 0xbc, 0x79, 0xea, 0x0b, 0xbe,
  0xc0, 0xeb, 0x22, 0xbd, 0x06, 0x8b, 0x1e, 0x3e, 0x2c, 0xd0, 0xc8, 0xbc,
  0x36, 0xbb, 0x80, 0x3e, 0x9e, 0xd4, 0xc3, 0x3d, 0x30, 0x5e, 0x8d, 0x3d,
  0x5a, 0xaa, 0xf9, 0xbb, 0xc3, 0x1c, 0xad, 0xbd, 0x1e, 0x15, 0x16, 0xbe,
  0x43, 0xf9, 0x99, 0x3e, 0x08, 0x06, 0x05, 0x3e, 0xe4, 0xa8, 0xc0, 0x3d,
  0x2d, 0x4e, 0x7f, 0x3d, 0xa8, 0x35, 0x8d, 0xbd, 0xff, 0xe6, 0xea, 0x3d,
  0x83, 0xa5, 0x9c, 0x3e, 0x5a, 0x70, 0x39, 0x3e, 0x29, 0x09, 0x2f, 0xbe,
  0xe9, 0x56, 0xd0, 0x3d, 0xe2, 0x09, 0x2c, 0x3e, 0xe2, 0xaa, 0x6f, 0x3d,
  0x12, 0x28, 0x37, 0x3e, 0x70, 0x41, 0x82, 0x3e, 0x63, 0x24, 0x17, 0x3e,
  0x6b, 0xf6, 0xdd, 0xbd, 0xc6, 0x65, 0x2c, 0x3e, 0x8e, 0x38, 0xdb, 0x3c,
  0x46, 0x64, 0x81, 0x3e, 0x2f, 0xfc, 0x94, 0xbb, 0xfe, 0x3c, 0x3a, 0x3d,
  0x9e, 0x43, 0xe9, 0xbd, 0x08, 0x47, 0xea, 0xbd, 0xa6, 0x7f, 0x1f, 0xbe,
  0x77, 0x10, 0x1f, 0x3e, 0x68, 0xa3, 0x12, 0x3e, 0x6c, 0xab, 0x9a, 0x3d,
  0xcb, 0xa3, 0x07, 0xbe, 0xff, 0x64, 0xa8, 0x3c, 0x28, 0x90, 0xf2, 0x3d,
  0x94, 0x6b, 0x51, 0x3c, 0x40, 0x47, 0x31, 0x3e, 0x35, 0x39, 0x9c, 0xbd,
  0xe7, 0x5e, 0x3e, 0xbd, 0x56, 0x52, 0x2d, 0x3e, 0x4c, 0x7c, 0x84, 0x3d,
  0x95, 0x19, 0x9e, 0x3e, 0xb8, 0x3e, 0x91, 0x3d, 0x65, 0x93, 0x89, 0xbc,
  0x72, 0x1c, 0x1c, 0xbc, 0x59, 0x3a, 0x0e, 0x3e, 0xe4, 0xcf, 0x92, 0xbd,
  0x1a, 0xee, 0x7a, 0x3e, 0xc4, 0x29, 0x82, 0x3e, 0xe3, 0xc0, 0xb8, 0xbb,
  0x56, 0x40, 0x1d, 0xbd, 0x1b, 0xd7, 0x20, 0xbe, 0x3f, 0x58, 0xf9, 0x3d,
  0xce, 0xf0, 0x70, 0x3e, 0x0e, 0xc5, 0x65, 0x3e, 0xc2, 0x74, 0x02, 0xbe,
  0x52, 0xa9, 0x5d, 0x3d, 0xa8, 0x98, 0xb6, 0x3d, 0xcf, 0x0b, 0x3a, 0xbb,
  0x48, 0x36, 0x55, 0x3e, 0xbf, 0xb5, 0x2b, 0x3e, 0xda, 0x56, 0x31, 0xbd,
  0x16, 0x64, 0x02, 0xbd, 0x73, 0xd9, 0x80, 0xbc, 0xdb, 0xca, 0xa4, 0xbd,
  0x74, 0x3e, 0x71, 0x3e, 0x09, 0x7a, 0x0d, 0xbb, 0x1c, 0x90, 0x03, 0x3e,
  0x84, 0x86, 0x05, 0x3e, 0x7d, 0xfd, 0x21, 0xbe, 0xc3, 0x7b, 0x2b, 0xbe,
  0x99, 0x6c, 0x44, 0x3d, 0x47, 0x2d, 0x81, 0x3e, 0x36, 0x72, 0x1b, 0x3d,
  0x56, 0x19, 0x23, 0xbe, 0x3f, 0xae, 0x08, 0x3e, 0xb4, 0x6f, 0x26, 0xbe,
  0x7a, 0x0c, 0x92, 0x3d, 0x49, 0xb3, 0x9a, 0x3e, 0x09, 0xad, 0xb1, 0x3d,
  0xa5, 0x02, 0x33, 0xbe, 0xf8, 0x5a, 0x39, 0x3d, 0x38, 0x3a, 0xca, 0x3d,
  0x16, 0x1f, 0x6b, 0xbc, 0xea, 0xc3, 0x0c, 0x3e, 0xdb, 0x72, 0xea, 0xbd,
  0xbb, 0x73, 0x3c, 0xbe, 0x8a, 0xd3, 0x19, 0x3e, 0x79, 0x91, 0x1f, 0xbe,
  0xe8, 0x62, 0xc6, 0xbc, 0xd6, 0x27, 0x43, 0x3e, 0xb2, 0xeb, 0x16, 0xbe,
  0x3b, 0xcc, 0x09, 0x3e, 0xab, 0x70, 0xa8, 0x3d, 0x85, 0x80, 0x21, 0xbe,
  0xeb, 0x77, 0x1e, 0x3e, 0xa4, 0x7e, 0x0e, 0x3e, 0xdd, 0xf7, 0x4e, 0xbe,
  0xca, 0x1b, 0x91, 0x3d, 0x68, 0xde, 0x7e, 0x3c, 0x35, 0x76, 0xf1, 0x3c,
  0xff, 0x6c, 0x0b, 0x3e, 0xc2, 0x44, 0xbb, 0x3d, 0x53, 0xdf, 0x5b, 0x3d,
  0x29, 0xf7, 0x4c, 0xbe, 0xc3, 0x45, 0xbf, 0xbd, 0x34, 0x14, 0x97, 0xbb,
  0x85, 0x4f, 0x24, 0x3e, 0x6f, 0x7d, 0xe3, 0x3d, 0x8b, 0x32, 0x49, 0x3d,
  0x64, 0xf1, 0x64, 0x3d, 0x84, 0xfb, 0x91, 0xbd, 0x5b, 0xa2, 0x9f, 0x3d,
  0x6c, 0xc4, 0x24, 0x3e, 0xe0, 0x2d, 0xa5, 0xbd, 0x8a, 0x58, 0x13, 0xbd,
  0x90, 0x76, 0x19, 0x3e, 0x9e, 0xe3, 0xf5, 0xbc, 0x4f, 0xf5, 0xd3, 0x3c,
  0x16, 0x5c, 0x8d, 0x3d, 0xcc, 0x8a, 0xf2, 0x3d, 0x18, 0x17, 0xb0, 0x3c,
  0xaa, 0xb5, 0xda, 0x3d, 0x77, 0x4f, 0xb0, 0xbd, 0x9e, 0x58, 0xfc, 0x3d,
  0x9d, 0x25, 0x45, 0x3c, 0xa0, 0xc8, 0x11, 0x3e, 0x69, 0x3e, 0x95, 0xbd,
  0xc7, 0x1f, 0x01, 0x3e, 0xea, 0x6f, 0xc7, 0xbd, 0xff, 0xb9, 0xa5, 0x3c,
  0x25, 0x19, 0x95, 0x3d, 0xac, 0x09, 0x9e, 0xbd, 0x06, 0x09, 0x00, 0xbd,
  0x49, 0xb3, 0xbb, 0x3c, 0xc3, 0xac, 0x03, 0xbc, 0xe1, 0xc1, 0xa1, 0x3d,
  0xeb, 0xe5, 0xbb, 0xbc, 0x41, 0x3b, 0x95, 0x3c, 0x59, 0x81, 0x58, 0x3e,
  0x50, 0x2c, 0x55, 0xbd, 0x9d, 0x2e, 0xfc, 0xbc, 0xd4, 0xf8, 0xbc, 0xbd,
  0x83, 0x64, 0x8e, 0xbc, 0xc7, 0x27, 0x30, 0xbe, 0xa5, 0xd2, 0x36, 0xbd,
  0xc7, 0x8c, 0xdd, 0xbd, 0x34, 0xef, 0x41, 0x3e, 0xc1, 0xfa, 0xf8, 0x3c,
  0xb2, 0x19, 0xab, 0x3d, 0x24, 0x11, 0xc3, 0xbc, 0xac, 0xbd, 0xb9, 0xbd,
  0x76, 0x3a, 0x85, 0x3d, 0x0e, 0xde, 0x68, 0xba, 0xcd, 0xec, 0xaf, 0xbd,
  0x95, 0x6b, 0x9d, 0x3d, 0x39, 0xdc, 0x25, 0xbd, 0x6c, 0xdd, 0x66, 0x3e,
  0x36, 0x94, 0x1f, 0x3e, 0xeb, 0x09, 0x0f, 0xbd, 0xf6, 0x30, 0xc1, 0x3d,
  0x79, 0xed, 0x3f, 0x3e, 0x4e, 0xf7, 0xc7, 0x3c, 0x3f, 0x02, 0x10, 0x3d,
  0x6f, 0xd1, 0x96, 0xbd, 0x65, 0x18, 0x79, 0xbd, 0xa9, 0xb7, 0x0a, 0xbd,
  0x1d, 0x83, 0x2e, 0x3e, 0xfb, 0xc1, 0x4d, 0x3d, 0x77, 0xf2, 0x65, 0x3e,
  0x96, 0xdb, 0x2d, 0xbd, 0xe7, 0x3c, 0x0c, 0x3e, 0xde, 0xe8, 0x76, 0x3b,
  0xb9, 0xe2, 0x2a, 0x3e, 0x31, 0x0f, 0x17, 0x3e, 0xab, 0x91, 0x0c, 0x3e,
  0xb5, 0x24, 0x90, 0x3d, 0x76, 0x6b, 0x6f, 0x3b, 0xbb, 0x6f, 0x5b, 0x3e,
  0x50, 0x31, 0xb1, 0x3d, 0x07, 0x89, 0x02, 0xbe, 0xb1, 0x98, 0xfa, 0x3d,
  0x3c, 0x4c, 0x24, 0x3d, 0x9c, 0xb4, 0x77, 0xbc, 0x4f, 0xbf, 0xc0, 0xbd,
  0xb5, 0xee, 0xbb, 0x3d, 0x48, 0x22, 0x03, 0xbe, 0x7a, 0x70, 0x40, 0xbc,
  0x26, 0x75, 0x3d, 0x3e, 0x91, 0x34, 0x05, 0x3e, 0x5c, 0xdb, 0x20, 0xbd,
  0xb1, 0xc2, 0xd7, 0xbd, 0x15, 0x6d, 0xa6, 0x3d, 0xf5, 0x88, 0x0c, 0x3d,
  0x0b, 0x50, 0x9f, 0x3d, 0x1a, 0x73, 0x18, 0x3e, 0x9d, 0x4e, 0x61, 0x3e,
  0x47, 0x5b, 0x27, 0xbd, 0x4f, 0xe7, 0xc0, 0x3d, 0x1e, 0x49, 0x91, 0xbd,
  0x64, 0x8c, 0x02, 0xbd, 0x97, 0x30, 0xc7, 0x3d, 0x11, 0xeb, 0x5f, 0x3e,
  0x29, 0xbe, 0x6f, 0x3c, 0x97, 0xb2, 0x35, 0x3e, 0x0c, 0x05, 0xd4, 0xbd,
  0xa5, 0x16, 0x95, 0xbd, 0x9e, 0xd4, 0x0d, 0x3c, 0x32, 0xcb, 0x6e, 0xbc,
  0xc7, 0x87, 0x94, 0x3d, 0x42, 0x99, 0xed, 0xbd, 0xbc, 0xde, 0x00, 0x3e,
  0x41, 0xf2, 0x93, 0x3d, 0x17, 0x8b, 0x6b, 0xbd, 0x5b, 0x7e, 0x30, 0x3e,
  0x35, 0x87, 0x93, 0x3d, 0x05, 0x93, 0x15, 0x3e, 0xf9, 0x7a, 0x12, 0x3e,
  0x02, 0xb6, 0x98, 0xbd, 0xf5, 0x76, 0xd8, 0xbd, 0xe2, 0xae, 0xc9, 0xbd,
  0x1f, 0x33, 0x5f, 0x3d, 0xc6, 0xf3, 0x13, 0x3e, 0xce, 0xc8, 0xa9, 0x3d,
  0x71, 0x8d, 0xb6, 0xbd, 0x4c, 0x79, 0x30, 0x3e, 0x77, 0x11, 0xca, 0x3d,
  0x89, 0xee, 0xa4, 0x3b, 0xea, 0xd1, 0xd4, 0x3d, 0xdc, 0x08, 0x16, 0x3e,
  0xbe, 0x33, 0x0c, 0x3e, 0x63, 0xf2, 0xed, 0x3c, 0xdc, 0xf0, 0x3c, 0x3e,
  0x71, 0x5e, 0x20, 0x3e, 0x92, 0xd9, 0x22, 0x3e, 0xcc, 0x0d, 0x60, 0x3e,
  0x15, 0x07, 0x80, 0x3d, 0x62, 0x28, 0x15, 0x3e, 0x76, 0x20, 0x93, 0xbc,
  0x58, 0x2b, 0xaf, 0xbd, 0x53, 0x7d, 0x01, 0xbe, 0x80, 0xb5, 0x1b, 0x3e,
  0x3e, 0xff, 0x4e, 0x3d, 0x5d, 0x86, 0x9c, 0x3d, 0xaf, 0xc8, 0x3b, 0x3e,
  0x6b, 0xb2, 0x89, 0xbd, 0xaf, 0x5e, 0x3f, 0xbc, 0xfd, 0x07, 0xa9, 0xbd,
  0xa2, 0x43, 0xf9, 0x3d, 0x70, 0x1a, 0x34, 0x3e, 0x72, 0xab, 0x30, 0x3e,
  0x30, 0xef, 0x81, 0xbd, 0xd2, 0x65, 0x47, 0x3e, 0x34, 0x3e, 0x39, 0xbd,
  0x69, 0x76, 0x34, 0x3e, 0xd7, 0xd6, 0x44, 0x3e, 0x75, 0x02, 0x94, 0xbd,
  0xe0, 0x82, 0x15, 0xbe, 0x1f, 0x29, 0x96, 0x3d, 0x79, 0x8b, 0x43, 0xbd,
  0x75, 0x4b, 0x3c, 0x3e, 0x49, 0xe9, 0x98, 0xbd, 0x0d, 0xda, 0x85, 0xbd,
  0x8d, 0x55, 0x13, 0xbe, 0x7c, 0x2d, 0x26, 0xbd, 0xa3, 0x77, 0x83, 0x3c,
  0x66, 0xa5, 0xc0, 0xbc, 0x21, 0x1c, 0x53, 0x3e, 0x67, 0x2f, 0xd6, 0xbc,
  0xbf, 0x5f, 0x10, 0x3e, 0xad, 0x79, 0xcf, 0x3d, 0xc6, 0x1a, 0xc0, 0x3c,
  0xbf, 0x57, 0x05, 0x3e, 0x87, 0xd6, 0x14, 0x3d, 0x96, 0x4e, 0x49, 0x3c,
  0x33, 0x1a, 0x00, 0x3d, 0x6e, 0xa2, 0xab, 0xbd, 0xd1, 0x02, 0x94, 0x3d,
  0x71, 0xe8, 0x39, 0x3d, 0xbd, 0x2d, 0xe7, 0xbb, 0xc7, 0x54, 0xa0, 0xbd,
  0xc3, 0xdf, 0x0a, 0xbd, 0xfe, 0x50, 0xd5, 0x3d, 0x44, 0xdc, 0x27, 0x3d,
  0x94, 0xcd, 0x7b, 0x3d, 0x0a, 0xe5, 0x32, 0x3e, 0xa5, 0x86, 0x51, 0x3d,
  0xe7, 0x09, 0x95, 0xbc, 0x64, 0x55, 0x7c, 0xbd, 0x85, 0x54, 0x9b, 0x3d,
  0x48, 0x7e, 0x91, 0xbd, 0xae, 0xd9, 0x75, 0xbd, 0x76, 0x0e, 0x03, 0x3c,
  0xf3, 0x1b, 0x65, 0xbc, 0x5d, 0xf9, 0x0b, 0x3e, 0x81, 0xa0, 0xcc, 0xbd,
  0xd0, 0xbf, 0xca, 0xbd, 0x03, 0xd5, 0x46, 0xbd, 0xe2, 0xb0, 0x4d, 0xbd,
  0x40, 0x7d, 0x9f, 0x3e, 0xc6, 0x79, 0xc2, 0xbd, 0x20, 0x4f, 0x5c, 0x3d,
  0x97, 0x89, 0xc7, 0xbd, 0x4b, 0x83, 0x98, 0xbd, 0x4a, 0xef, 0xdc, 0x3d,
  0x1e, 0x2d, 0x33, 0x3e, 0xed, 0x90, 0xa0, 0x3d, 0x1b, 0x72, 0x43, 0x3e,
  0xfd, 0xf7, 0x29, 0x3d, 0x22, 0x07, 0x1a, 0x3e, 0x99, 0x96, 0x04, 0x3e,
  0x55, 0x39, 0x7e, 0x3e, 0xc5, 0x72, 0x47, 0x3d, 0x60, 0x3e, 0x5f, 0x3e,
  0xc3, 0x14, 0x37, 0x3e, 0xb5, 0x43, 0x2a, 0x3e, 0xdc, 0xe4, 0x0d, 0x3e,
  0x0d, 0x2d, 0xb3, 0x3d, 0x1d, 0x9a, 0x45, 0xbe, 0xcf, 0x0b, 0xda, 0xbc,
  0x3a, 0x52, 0xe6, 0x3b, 0x27, 0xe8, 0x42, 0x3e, 0x0e, 0x11, 0x75, 0xbd,
  0xff, 0xa4, 0x21, 0x3d, 0x2b, 0x63, 0xdd, 0xbd, 0x53, 0xac, 0xeb, 0x3d,
  0x75, 0x4e, 0x8f, 0x3d, 0x38, 0xa3, 0x68, 0x3e, 0x6a, 0x47, 0x9f, 0xbc,
  0x5f, 0x88, 0xeb, 0xbd, 0x01, 0x0a, 0x58, 0x3d, 0xcb, 0x3a, 0x0a, 0x3e,
  0xf2, 0x01, 0x49, 0x3c, 0x47, 0xf2, 0xcf, 0x3d, 0x12, 0x32, 0xa9, 0xb9,
  0x84, 0x20, 0xe7, 0xbd, 0xe3, 0xb9, 0x7d, 0xbe, 0x9c, 0x9e, 0x3f, 0x3d,
  0x12, 0xb4, 0x0e, 0x3e, 0xf5, 0x4d, 0xe8, 0x3c, 0xc5, 0xd2, 0x82, 0x3d,
  0xdf, 0x8a, 0xbb, 0xbd, 0x70, 0x7c, 0x4a, 0xbe, 0xe3, 0xe1, 0x16, 0x3e,
  0xe8, 0x01, 0x48, 0x3e, 0x8c, 0x72, 0x49, 0x3e, 0xd8, 0x55, 0x4a, 0x3e,
  0xfa, 0x7d, 0x30, 0x3d, 0x1c, 0x18, 0xb9, 0xbd, 0xa9, 0xc1, 0x1d, 0x3d,
  0x5c, 0xf7, 0x1c, 0xbd, 0x03, 0x22, 0x08, 0x3e, 0x04, 0xb7, 0x84, 0xbd,
  0x8d, 0xfa, 0x6b, 0xbd, 0xa6, 0x5c, 0x46, 0xbe, 0x1f, 0x17, 0x85, 0x3d,
  0x34, 0xfa, 0xe8, 0x3d, 0xa4, 0x47, 0xe2, 0xbd, 0xaa, 0xd7, 0x00, 0x3e,
  0x61, 0x49, 0x0a, 0xbe, 0x54, 0xff, 0x20, 0xbe, 0x8f, 0x2b, 0xc8, 0x3d,
  0x5d, 0x6f, 0xd6, 0xbd, 0xb6, 0x10, 0x17, 0x3e, 0x2a, 0xf3, 0xd9, 0x3d,
  0x6b, 0x8b, 0x02, 0x3d, 0xae, 0x56, 0x21, 0xbd, 0x68, 0xc1, 0x74, 0x3d,
  0xf9, 0x8c, 0x95, 0xbc, 0xfc, 0xf1, 0xad, 0xbc, 0x1d, 0x50, 0xc1, 0x3d,
  0x54, 0xfc, 0xa0, 0xbd, 0xd8, 0x9a, 0x4b, 0xbd, 0x1d, 0xbf, 0x62, 0xbd,
  0x38, 0x27, 0xc8, 0xbd, 0xeb, 0x7c, 0x3b, 0xbd, 0x93, 0xc4, 0x2a, 0x3c,
  0x76, 0x6b, 0xca, 0xbc, 0x73, 0xf0, 0x71, 0xbe, 0xb7, 0xb6, 0xad, 0x3c,
  0x7e, 0x76, 0xe5, 0x3d, 0x6f, 0x2e, 0x2c, 0x3d, 0x53, 0x0f, 0x79, 0xbd,
  0x26, 0x5e, 0x9e, 0xbe, 0x60, 0xe0, 0x86, 0xbe, 0x3e, 0x8b, 0xf3, 0x3d,
  0x10, 0xc2, 0x4d, 0xbd, 0x5f, 0x70, 0xf1, 0x3d, 0x7b, 0x98, 0x37, 0x3e,
  0x56, 0x48, 0x9c, 0xbe, 0xb8, 0x6d, 0x58, 0xbe, 0xd3, 0x63, 0x29, 0x3e,
  0xd5, 0xdb, 0x35, 0x3e, 0x04, 0x06, 0xc5, 0xbc, 0x78, 0x4c, 0x6f, 0x3d,
  0xd9, 0x12, 0x6f, 0xbe, 0xea, 0xe7, 0xcc, 0xbb, 0x7e, 0xf0, 0x80, 0x3d,
  0x83, 0x3a, 0xe1, 0xbb, 0x77, 0xb0, 0xd6, 0x3b, 0x6a, 0x49, 0x96, 0xbd,
  0xe7, 0x9b, 0x1e, 0xbe, 0x3a, 0x19, 0x40, 0xbe, 0xd7, 0x84, 0x0f, 0x3e,
  0xc3, 0x03, 0xf1, 0x3d, 0x20, 0x0d, 0xb5, 0xbd, 0x83, 0xd4, 0x5e, 0xbc,
  0xa2, 0xba, 0x66, 0xbc, 0x9d, 0x8e, 0xcb, 0xbd, 0x52, 0x26, 0xe1, 0x3d,
  0x3f, 0x83, 0xbf, 0xbd, 0xba, 0xee, 0xeb, 0xbd, 0xd1, 0xaf, 0xae, 0x3d,
  0xb8, 0xe5, 0x77, 0xbe, 0x64, 0x69, 0x3f, 0xbe, 0xb5, 0xd2, 0x39, 0x3e,
  0x3f, 0xec, 0x22, 0x3e, 0xb7, 0x9f, 0x97, 0xbc, 0x61, 0xff, 0xbc, 0x3d,
  0x72, 0xf2, 0x1a, 0xbd, 0xa7, 0xb7, 0xae, 0xbd, 0xfe, 0x7e, 0x1f, 0x3d,
  0x1d, 0x2e, 0x8a, 0x3d, 0xa0, 0xcc, 0xb2, 0x3d, 0xc1, 0x86, 0x0f, 0x3e,
  0x2d, 0x17, 0x08, 0xbe, 0x08, 0xbb, 0x7a, 0xbe, 0x01, 0x39, 0x74, 0xba,
  0xee, 0xd2, 0x47, 0x3e, 0xbe, 0x66, 0xe2, 0xbd, 0xb5, 0x77, 0xe5, 0xbb,
  0xe1, 0x56, 0x3c, 0xbe, 0xa5, 0x86, 0x6f, 0xbe, 0x56, 0xd5, 0xae, 0x3d,
  0xda, 0xf2, 0xce, 0x3d, 0x14, 0x4b, 0xbb, 0xbd, 0xc6, 0x7b, 0x66, 0xbd,
  0xda, 0x4f, 0xb6, 0x3b, 0x3e, 0xeb, 0x71, 0xbe, 0x20, 0x0e, 0x09, 0xbc,
  0xfb, 0x9a, 0x4e, 0x3e, 0x7b, 0xeb, 0x1a, 0x3e, 0xde, 0x85, 0x9b, 0x3d,
  0x3b, 0x60, 0x2e, 0xbe, 0xf1, 0xb0, 0x81, 0xbe, 0x4c, 0x05, 0x51, 0x3e,
  0x54, 0x9b, 0x5a, 0x3e, 0x42, 0x08, 0x8c, 0x3d, 0x55, 0x14, 0x51, 0x3e,
  0x57, 0xcb, 0x18, 0x3e, 0xee, 0x16, 0x90, 0xbe, 0x28, 0x53, 0x2c, 0x3e,
  0x00, 0x92, 0x7b, 0x3c, 0xce, 0x85, 0xb0, 0xbb, 0xfb, 0x11, 0xe6, 0x3d,
  0xbb, 0x33, 0xf2, 0xbd, 0x0d, 0xb0, 0x38, 0xbe, 0x89, 0x99, 0x09, 0xbd,
  0xce, 0x03, 0x60, 0xbd, 0xa9, 0x34, 0xb8, 0x3d, 0x5a, 0x21, 0x7f, 0x3e,
  0x07, 0x2d, 0x42, 0xbe, 0x91, 0x3c, 0x96, 0xbe, 0xfd, 0x94, 0x3f, 0x3e,
  0x65, 0xd8, 0x4d, 0x3e, 0x6d, 0x45, 0x53, 0xbd, 0x1f, 0x28, 0x81, 0x3d,
  0xee, 0x6d, 0x13, 0xbe, 0xce, 0xc1, 0x13, 0xbe, 0xf8, 0x9a, 0x63, 0x3c,
  0x16, 0x85, 0x4c, 0x3e, 0xdc, 0x6f, 0xcc, 0x3d, 0xb7, 0xf7, 0xec, 0x3d,
  0xab, 0x3c, 0x07, 0x3e, 0x19, 0x4d, 0x69, 0x3d, 0xc1, 0xe5, 0xa1, 0xbc,
  0x55, 0x17, 0x00, 0x3d, 0x54, 0x4f, 0xdd, 0x3d, 0xcc, 0x85, 0x35, 0x3e,
  0x4f, 0x54, 0x71, 0x3e, 0xab, 0x14, 0xef, 0xbd, 0x29, 0x4e, 0x57, 0x3d,
  0x4c, 0x57, 0xbd, 0x3c, 0xc3, 0x4b, 0x22, 0x3e, 0xfd, 0xdb, 0x21, 0x3e,
  0x0c, 0x4c, 0x2a, 0x3e, 0xc6, 0x38, 0x2c, 0xbd, 0x03, 0x43, 0xbe, 0x3c,
  0xa7, 0xac, 0x10, 0x3e, 0x23, 0xe9, 0x7b, 0xbd, 0x34, 0x3c, 0xc6, 0x3c,
  0x7c, 0x23, 0x4a, 0x3d, 0x13, 0x1a, 0x34, 0xbe, 0x49, 0x08, 0x34, 0x3e,
  0xa3, 0x20, 0x8e, 0xbd, 0x1e, 0x0b, 0xd8, 0x3d, 0x3a, 0x1d, 0x37, 0x3e,
  0xcd, 0xe3, 0xd0, 0xbd, 0x60, 0x2e, 0x25, 0xbe, 0x08, 0x59, 0xef, 0x3c,
  0x55, 0x36, 0x84, 0xbd, 0x4b, 0xb1, 0x04, 0x3e, 0xc1, 0xc8, 0xe3, 0xbd,
  0xd2, 0x8e, 0x1b, 0x3e, 0x9d, 0xbd, 0x7c, 0xbe, 0x81, 0x0c, 0x21, 0x3e,
  0xdb, 0x13, 0xdb, 0x3c, 0x05, 0xb1, 0xdb, 0x3d, 0x78, 0x65, 0x39, 0x3e,
  0x4d, 0x80, 0x56, 0xbc, 0xfd, 0xdc, 0xba, 0xbc, 0x3b, 0xb7, 0x01, 0xbd,
  0x24, 0xa6, 0xc2, 0xbd, 0x43, 0x00, 0xc6, 0xbd, 0x8d, 0x7a, 0xc5, 0xbd,
  0x95, 0x0f, 0x45, 0x3d, 0xa4, 0xc7, 0x81, 0x3c, 0xf9, 0x64, 0x02, 0x3d,
  0x4b, 0xdc, 0xc7, 0xbd, 0xb2, 0x80, 0x23, 0x3e, 0x7d, 0x6e, 0x1e, 0x3e,
  0xf1, 0x28, 0x3a, 0x3d, 0x4a, 0xda, 0x7c, 0xbd, 0x45, 0x3e, 0x82, 0xbd,
  0xa2, 0xb5, 0x57, 0x3d, 0x2d, 0xc7, 0x5c, 0x3c, 0xe4, 0x22, 0x24, 0x3d,
  0x62, 0x8c, 0xe3, 0xbd, 0xb1, 0xaf, 0xee, 0x3c, 0xf0, 0x91, 0xa9, 0x3d,
  0x86, 0x64, 0x08, 0x3e, 0x5d, 0x3a, 0xb4, 0xbc, 0x2a, 0x69, 0x06, 0x3e,
  0x92, 0x16, 0xb6, 0xbc, 0xad, 0x6b, 0xeb, 0xbd, 0xa4, 0x2d, 0x4e, 0x3e,
  0x96, 0x07, 0x51, 0x3d, 0x70, 0x28, 0xff, 0xbc, 0xe0, 0x62, 0x45, 0x3e,
  0xfe, 0x00, 0x2d, 0xbd, 0x14, 0xde, 0x5f, 0x3d, 0x84, 0x81, 0xf9, 0xbd,
  0x58, 0xe7, 0x9b, 0xbd, 0x04, 0xd1, 0x68, 0xbd, 0x0c, 0x5f, 0xde, 0x3c,
  0xf3, 0x7f, 0x97, 0xbc, 0x31, 0x10, 0x6e, 0xbd, 0xca, 0xea, 0x26, 0xbc,
  0x73, 0x0b, 0x12, 0xbe, 0x95, 0x73, 0x90, 0xbd, 0x89, 0xf7, 0x0a, 0x3e,
  0x28, 0x37, 0x83, 0xbe, 0xd1, 0xac, 0x20, 0xbe, 0x9a, 0x26, 0xbd, 0x3c,
  0x21, 0xb9, 0xa7, 0x3d, 0xd0, 0x30, 0x19, 0x3e, 0x6e, 0x2b, 0x65, 0xbd,
  0x0d, 0x25, 0x75, 0xbe, 0x0b, 0x78, 0x6c, 0xbe, 0x95, 0x60, 0x2d, 0xbd,
  0xd4, 0xf7, 0x47, 0xbc, 0xa7, 0x74, 0x13, 0xbe, 0x72, 0xed, 0xa9, 0xbd,
  0x31, 0x84, 0xc1, 0x3c, 0xca, 0xaa, 0x3a, 0x3d, 0x68, 0x26, 0x24, 0x3e,
  0xf8, 0x9f, 0x52, 0x3d, 0x8e, 0xa5, 0x18, 0xbe, 0x01, 0x8e, 0x36, 0xbd,
  0x89, 0x10, 0x7c, 0xbe, 0x7a, 0xfc, 0x71, 0xbe, 0x0d, 0xd3, 0x37, 0x3d,
  0x80, 0xc9, 0x37, 0x3d, 0x29, 0x65, 0x3b, 0x3d, 0x9d, 0x44, 0x75, 0x3c,
  0x79, 0x18, 0x90, 0xbe, 0x51, 0x1a, 0x00, 0xbe, 0xff, 0x52, 0xda, 0x3d,
  0x3e, 0xe8, 0x65, 0x3c, 0x4a, 0x5b, 0x9c, 0xbd, 0x5a, 0xad, 0x81, 0x3d,
  0x2e, 0x3b, 0x93, 0xbe, 0xee, 0x2d, 0x86, 0x3d, 0xa9, 0x6a, 0x0a, 0xbd,
  0x5f, 0x1b, 0xd8, 0xbd, 0xd0, 0x59, 0x2c, 0x3e, 0xe8, 0x9e, 0xa8, 0xbd,
  0xde, 0x50, 0x49, 0xbe, 0xba, 0x6a, 0x88, 0x3d, 0x3b, 0xc0, 0xad, 0x3d,
  0xb6, 0x8e, 0x28, 0xbd, 0xb3, 0x24, 0x35, 0x3e, 0x33, 0x07, 0x70, 0xbc,
  0xc6, 0xa5, 0x3b, 0xbe, 0xb1, 0x84, 0x68, 0xbd, 0x0e, 0xad, 0xa5, 0xbd,
  0x05, 0x84, 0x52, 0x3d, 0x17, 0x05, 0x0d, 0x3e, 0x42, 0x6a, 0xd1, 0x3d,
  0xaa, 0xef, 0x7f, 0xbd, 0xca, 0x13, 0xf2, 0xbd, 0x6c, 0x70, 0x2c, 0x3e,
  0x4c, 0x34, 0x9c, 0xbd, 0x99, 0x4e, 0xe6, 0x3b, 0x6f, 0xae, 0x8f, 0x3b,
  0xbf, 0xff, 0x3f, 0xbd, 0x50, 0xce, 0x5b, 0x3c, 0x6e, 0xd9, 0x9d, 0x3d,
  0xe8, 0xb6, 0xc7, 0xba, 0xe4, 0x61, 0x7b, 0x3d, 0x71, 0x49, 0x9b, 0xbd,
  0xd2, 0xc1, 0x0a, 0xbe, 0xe1, 0x1e, 0xc8, 0xbd, 0x06, 0xc2, 0x20, 0x3e,
  0xe7, 0x2e, 0x36, 0x3c, 0x4b, 0x7d, 0x86, 0x3d, 0xa0, 0x1a, 0x9e, 0xbd,
  0x34, 0xdd, 0xb4, 0xbd, 0x54, 0xe8, 0xbd, 0xbc, 0xec, 0xce, 0x12, 0x3e,
  0x84, 0x5e, 0x8a, 0xbd, 0x0f, 0x0a, 0xd1, 0xbd, 0x92, 0xd9, 0x7b, 0x3c,
  0x11, 0xa5, 0x03, 0xbe, 0xac, 0x16, 0x90, 0xbd, 0x10, 0xaf, 0x01, 0x3e,
  0x5a, 0x1a, 0x72, 0x3c, 0xad, 0x7b, 0x02, 0x3e, 0x28, 0x1c, 0xa0, 0xbd,
  0xa7, 0x4c, 0xaf, 0x3d, 0x53, 0x06, 0x3c, 0xbe, 0x08, 0x75, 0x56, 0xbc,
  0xd4, 0x35, 0xdf, 0xbd, 0xb5, 0x6e, 0x37, 0xbd, 0x4f, 0x73, 0x4f, 0x3e,
  0xf7, 0x3e, 0x47, 0xbd, 0x83, 0xf7, 0x05, 0xbd, 0x13, 0xf9, 0xe0, 0x3d,
  0xda, 0xb1, 0x53, 0x3e, 0xbf, 0xd8, 0x17, 0x3e, 0x7a, 0x17, 0xfd, 0x3d,
  0x17, 0x67, 0xda, 0xbd, 0xd0, 0x75, 0xf2, 0xbd, 0x23, 0x92, 0x52, 0x3e,
  0x2d, 0x4e, 0x12, 0x3e, 0x4f, 0xa4, 0x01, 0x3e, 0x9d, 0xe4, 0xbb, 0x3d,
  0x7c, 0x7b, 0xdc, 0xbd, 0xa3, 0x47, 0xba, 0xbd, 0x8b, 0x02, 0xb3, 0x3d,
  0xc0, 0x1f, 0xe4, 0x3d, 0x53, 0x1c, 0x4c, 0x3e, 0x0a, 0x3f, 0x3b, 0xbd,
  0xc2, 0x4f, 0xad, 0x3c, 0x6b, 0xeb, 0xe1, 0x3d, 0x21, 0x8b, 0xf5, 0x3c,
  0xb1, 0xb5, 0x36, 0x3d, 0xf8, 0x6d, 0x58, 0xbd, 0x84, 0xce, 0x72, 0xbd,
  0x4e, 0xb2, 0x98, 0x3d, 0x96, 0x14, 0xef, 0xbc, 0x1b, 0xbd, 0x2b, 0xbe,
  0xab, 0x79, 0x16, 0xbd, 0x3b, 0xe9, 0xc4, 0xbd, 0xbe, 0xad, 0x5c, 0x3d,
  0xd5, 0xd7, 0x21, 0x3e, 0x8a, 0xa9, 0x15, 0xbe, 0x78, 0x30, 0xf4, 0xbd,
  0xe0, 0xca, 0xa6, 0xbd, 0xf4, 0x96, 0xdb, 0xbc, 0x6f, 0x56, 0xdb, 0xbd,
  0xa8, 0x35, 0x05, 0xbd, 0xb2, 0x07, 0x49, 0x3b, 0xf1, 0xac, 0xf7, 0xbd,
  0x3a, 0x64, 0x94, 0x3c, 0x29, 0xaa, 0xd7, 0x3c, 0x17, 0xf7, 0x9d, 0x3b,
  0xed, 0x87, 0x92, 0x3c, 0x7d, 0x81, 0x00, 0xbe, 0x38, 0x11, 0xd9, 0xbd,
  0xaa, 0xdb, 0x04, 0xbe, 0x9a, 0x0f, 0x23, 0x3e, 0xdd, 0x78, 0x2a, 0x3d,
  0xb5, 0xb8, 0x76, 0xbd, 0xd2, 0x9a, 0x11, 0xbe, 0x1f, 0x4f, 0x2a, 0x3d,
  0x7d, 0xea, 0x89, 0x3d, 0x0b, 0x9d, 0xba, 0xbd, 0xb7, 0x06, 0x0a, 0xbe,
  0x00, 0x6d, 0xf3, 0xbd, 0xbf, 0x33, 0x95, 0x3b, 0x95, 0xc0, 0xed, 0xbd,
  0x90, 0xe5, 0xe0, 0x3d, 0x77, 0x4d, 0x21, 0x3e, 0x9f, 0x8e, 0x21, 0xbd,
  0x4f, 0x0f, 0xd4, 0x3c, 0xc6, 0xa3, 0x55, 0x3c, 0x6c, 0xcf, 0xaa, 0xb9,
  0xa1, 0xc2, 0x96, 0xbd, 0x06, 0x5d, 0xcf, 0x3d, 0x96, 0x44, 0x42, 0xbd,
  0x1a, 0x47, 0x12, 0x3e, 0xad, 0x65, 0xe4, 0x3d, 0xaa, 0x14, 0x83, 0xbd,
  0xb3, 0x9d, 0x88, 0xbd, 0xfd, 0xce, 0xb6, 0x3c, 0x74, 0x71, 0x58, 0x3c,
  0x2d, 0xfb, 0x0b, 0xbe, 0xe2, 0x57, 0x16, 0x3e, 0xe4, 0x45, 0xa1, 0xbd,
  0xcf, 0x2f, 0x0e, 0xbe, 0x92, 0x07, 0x64, 0xbd, 0x4a, 0xdd, 0x59, 0x3d,
  0x0c, 0xe1, 0x08, 0xbe, 0x46, 0x61, 0xdd, 0x3d, 0xd5, 0x03, 0xae, 0x3c,
  0x8f, 0xc4, 0x58, 0xbd, 0xca, 0xe2, 0x12, 0x3e, 0x25, 0x10, 0xc7, 0xbb,
  0x6e, 0x93, 0x9f, 0xbd, 0x7b, 0xce, 0xf3, 0x3d, 0xac, 0x30, 0x0a, 0x3d,
  0xd4, 0x3d, 0xf4, 0x3d, 0x1d, 0x0b, 0xae, 0x3d, 0xe1, 0xd8, 0x89, 0x3d,
  0x98, 0x96, 0x1d, 0xbe, 0x4d, 0x70, 0xa0, 0xbc, 0x73, 0x33, 0x83, 0xbd,
  0x9c, 0xa6, 0x04, 0xbe, 0x72, 0xf9, 0xe8, 0xbd, 0x81, 0xfc, 0x62, 0xbc,
  0xa0, 0xb7, 0xe0, 0x3d, 0x3a, 0xff, 0xc0, 0xbd, 0x51, 0xf5, 0x01, 0xbe,
  0x87, 0x75, 0x44, 0xbd, 0xe2, 0x4d, 0x9c, 0x3d, 0x62, 0xb4, 0x1f, 0xbe,
  0x14, 0x29, 0x89, 0xbd, 0xbe, 0x55, 0x72, 0x3d, 0x09, 0x37, 0x77, 0x3d,
  0x6c, 0xa5, 0x0a, 0x3e, 0x84, 0xda, 0xe6, 0xbd, 0x63, 0x30, 0x74, 0xbd,
  0x0a, 0x26, 0x1b, 0x3c, 0x87, 0x17, 0xaf, 0xbc, 0x48, 0x63, 0x19, 0xbd,
  0xbb, 0xb4, 0x42, 0xbd, 0x76, 0xdd, 0x72, 0x3c, 0xab, 0x43, 0xf6, 0xbd,
  0x85, 0xc3, 0x0f, 0xbd, 0x1d, 0xaa, 0xff, 0xbd, 0xfb, 0xf9, 0xcc, 0xbd,
  0x48, 0xe3, 0xeb, 0x3c, 0x28, 0x6f, 0x77, 0xbb, 0x8e, 0x43, 0xec, 0x3a,
  0x9f, 0x76, 0x35, 0x3c, 0x38, 0xd5, 0xca, 0x3c, 0x0f, 0x99, 0x0b, 0x3e,
  0x63, 0xb6, 0xfe, 0xbd, 0x79, 0xb7, 0xa0, 0xbc, 0xf9, 0xd3, 0xb6, 0xbd,
  0xec, 0x2b, 0x26, 0xbe, 0xa3, 0x8b, 0xa8, 0xbd, 0xa8, 0x18, 0x02, 0xbe,
  0x0e, 0xac, 0xc6, 0xbd, 0xe7, 0xb2, 0xe1, 0xbd, 0x77, 0x3e, 0x53, 0x3c,
  0x05, 0x39, 0x06, 0xbe, 0x43, 0x64, 0x1e, 0xbe, 0x20, 0x99, 0x5e, 0x3b,
  0x97, 0x29, 0x32, 0xbd, 0xb2, 0x6e, 0x1a, 0x3e, 0x1e, 0x02, 0xa3, 0x3d,
  0x1b, 0x55, 0x1a, 0x3e, 0xb8, 0x61, 0xb3, 0x3d, 0xd5, 0xb9, 0xee, 0xbd,
  0x37, 0x3a, 0xe8, 0x3c, 0xe3, 0xf6, 0x02, 0xbd, 0x60, 0x84, 0x01, 0x3e,
  0xa9, 0x45, 0x70, 0xbd, 0xe2, 0x4c, 0x3b, 0xbd, 0x7a, 0x79, 0xdf, 0x3b,
  0x1b, 0x70, 0x13, 0xbe, 0x2a, 0xbb, 0xe1, 0xbd, 0x81, 0x37, 0x4a, 0x3d,
  0xb3, 0x5d, 0x23, 0x3c, 0x9f, 0x2f, 0xc8, 0x3a, 0xe8, 0x8a, 0x82, 0x3d,
  0x67, 0x31, 0x06, 0x3e, 0x81, 0x77, 0x21, 0x3e, 0xf4, 0x66, 0x02, 0x3e,
  0xfc, 0x56, 0x13, 0x3e, 0xe0, 0x72, 0xd1, 0x3d, 0xf7, 0xac, 0x64, 0xbd,
  0x2b, 0x06, 0x0d, 0x3e, 0x30, 0xc2, 0x88, 0x3d, 0xdc, 0x98, 0x30, 0xbe,
  0x7a, 0xd8, 0xb0, 0x3d, 0x64, 0xca, 0x15, 0x3e, 0x6b, 0xcd, 0xf0, 0x3d,
  0xd2, 0x1f, 0xde, 0xbd, 0x46, 0xa9, 0x2f, 0x3d, 0xb5, 0xb2, 0x83, 0x3d,
  0xeb, 0x1d, 0xf8, 0x3d, 0x8d, 0x12, 0xd9, 0x3d, 0x02, 0x10, 0x32, 0x3d,
  0xfd, 0x8b, 0xa2, 0x3d, 0xa1, 0x34, 0x5b, 0x3c, 0xa4, 0x9b, 0x44, 0x3d,
  0x89, 0x36, 0x61, 0xbd, 0x25, 0x3e, 0xfe, 0xbd, 0x21, 0x66, 0xa7, 0x3d,
  0x6d, 0x6c, 0x70, 0x3d, 0x41, 0x6b, 0x5a, 0xbd, 0x63, 0x06, 0xe8, 0xbd,
  0x16, 0x60, 0x2f, 0x3d, 0x0b, 0xe1, 0xb8, 0xbd, 0x42, 0xcd, 0xff, 0x3a,
  0x63, 0x2f, 0x10, 0xbe, 0x7a, 0x8a, 0x6d, 0xbd, 0xe9, 0x96, 0x07, 0x3d,
  0x4a, 0x45, 0x4b, 0x3b, 0x96, 0x1b, 0xc8, 0xbd, 0x42, 0x77, 0x39, 0x3d,
  0x30, 0x00, 0x07, 0xbe, 0xc7, 0x07, 0x2f, 0xbe, 0xb7, 0x8e, 0x0e, 0xbd,
  0x14, 0xf0, 0x39, 0xbd, 0xcd, 0xf5, 0x10, 0xbd, 0xe7, 0x6d, 0x12, 0x3e,
  0xcf, 0x5a, 0x2a, 0xbd, 0xc2, 0x14, 0xb1, 0x3d, 0x25, 0x30, 0x61, 0x3c,
  0x5b, 0x6f, 0xd6, 0xbd, 0x60, 0x4d, 0xef, 0xbd, 0xd5, 0xa5, 0x02, 0x3e,
  0x97, 0x26, 0xce, 0x3d, 0xe9, 0x90, 0xd1, 0xbc, 0x3c, 0x0d, 0x29, 0x3e,
  0x21, 0xaa, 0x81, 0x3e, 0x72, 0xb6, 0x42, 0xbe, 0x08, 0x53, 0xbc, 0x3d,
  0xee, 0xa6, 0x8c, 0xbd, 0x88, 0x9a, 0x99, 0xbd, 0x4b, 0xb8, 0x21, 0xbe,
  0xe5, 0x11, 0xe6, 0x3d, 0x24, 0x38, 0x25, 0xbe, 0xa8, 0x29, 0x7c, 0x3d,
  0x7d, 0xb6, 0x95, 0x3c, 0x6a, 0xc5, 0x9c, 0x3c, 0x7b, 0x40, 0x02, 0xbe,
  0xe9, 0x21, 0x28, 0x3e, 0x03, 0xfc, 0x66, 0xbe, 0xe2, 0x50, 0xd9, 0x3d,
  0x10, 0x05, 0x87, 0xbc, 0xbb, 0x25, 0xe7, 0x3d, 0x47, 0xa3, 0x00, 0xbe,
  0x41, 0xd5, 0xb6, 0xbd, 0x35, 0xb9, 0x9f, 0xbc, 0x3e, 0x0d, 0x09, 0x3e,
  0xd6, 0xee, 0x10, 0x3e, 0x39, 0xdc, 0x26, 0x3e, 0x82, 0x64, 0x2a, 0x3e,
  0x77, 0x89, 0xb4, 0x3d, 0x8c, 0xad, 0x6d, 0xbe, 0x8b, 0x51, 0x26, 0xbd,
  0x02, 0xb9, 0xc7, 0xbd, 0xc2, 0x80, 0xcd, 0xbc, 0xe1, 0x17, 0x15, 0x3e,
  0x93, 0x25, 0xa7, 0xbd, 0x3e, 0xe9, 0x81, 0x3b, 0x13, 0xf2, 0x81, 0x3d,
  0x4b, 0x4e, 0x94, 0xbd, 0xf3, 0x6d, 0x42, 0x3e, 0x20, 0x69, 0x13, 0xbd,
  0x13, 0x66, 0x10, 0xbe, 0x8e, 0xc2, 0x25, 0xbe, 0xcc, 0x20, 0xe0, 0xbd,
  0x42, 0xcc, 0x20, 0x3e, 0xaf, 0x7d, 0x11, 0x3e, 0x31, 0xd8, 0x84, 0x3d,
  0x8c, 0x4e, 0x2d, 0xbe, 0x9c, 0xaf, 0x38, 0xbd, 0xcb, 0xf2, 0xfd, 0x3c,
  0x54, 0x5a, 0xd4, 0x3d, 0x75, 0xc9, 0xd0, 0x3d, 0x77, 0xcd, 0x02, 0x3e,
  0x9b, 0xdd, 0x91, 0xbd, 0xf3, 0xfc, 0x8b, 0x3d, 0x84, 0x6c, 0x5a, 0xbc,
  0xcd, 0xa9, 0x0a, 0x3e, 0xaf, 0xc6, 0x0c, 0x3e, 0x2c, 0xa9, 0x95, 0x3c,
  0x35, 0x3b, 0x04, 0xbd, 0x30, 0x97, 0x97, 0xbd, 0x45, 0xf8, 0x38, 0x3e,
  0xac, 0x53, 0x49, 0xbd, 0xe1, 0x5d, 0x12, 0x3d, 0x45, 0x00, 0x84, 0x3d,
  0xc5, 0x81, 0x54, 0xbe, 0x80, 0x16, 0xca, 0x3c, 0xf1, 0x68, 0x72, 0x3c,
  0xb0, 0xd9, 0x09, 0xbe, 0x5f, 0x72, 0xe1, 0x3d, 0x74, 0xb1, 0x4b, 0x3e,
  0x75, 0xe4, 0x0f, 0xbe, 0xc2, 0x89, 0x6b, 0x3d, 0xf3, 0xbb, 0xeb, 0x3d,
  0xc5, 0xed, 0xa5, 0x3b, 0xf6, 0x72, 0x91, 0x3d, 0xb9, 0x3a, 0x73, 0x3d,
  0x1d, 0xcb, 0x2d, 0xbe, 0xe4, 0x72, 0x87, 0x3b, 0xf1, 0x37, 0x1a, 0x3e,
  0x11, 0x96, 0x49, 0xbd, 0xbb, 0x9b, 0x43, 0x3d, 0x5e, 0x03, 0x81, 0xbd,
  0x7a, 0x47, 0x68, 0xbd, 0x5f, 0x7a, 0x16, 0xbd, 0x44, 0x67, 0x0f, 0xbe,
  0x23, 0x6a, 0x67, 0xbd, 0xaa, 0x06, 0x0d, 0xbc, 0x45, 0x38, 0xd5, 0xbd,
  0x7b, 0x64, 0x22, 0xbe, 0xb5, 0x0e, 0x8a, 0xbd, 0xaf, 0x66, 0xc0, 0xbd,
  0x43, 0x0b, 0x21, 0xbe, 0xb7, 0x49, 0x59, 0xbd, 0x9c, 0x4e, 0x03, 0x3e,
  0x05, 0x2f, 0xae, 0xbd, 0x94, 0x49, 0xa2, 0xbc, 0xd6, 0xba, 0x8e, 0xba,
  0x6b, 0xf9, 0x1e, 0xbe, 0x35, 0x90, 0xf7, 0xbd, 0xe1, 0x17, 0x86, 0xbd,
  0x6e, 0x5c, 0xf3, 0xbc, 0x42, 0x7c, 0xb1, 0xbb, 0xb2, 0x6a, 0x21, 0x3e,
  0x65, 0x2d, 0xf8, 0x3c, 0x12, 0x0b, 0xd4, 0xbd, 0x56, 0x56, 0x50, 0x3d,
  0x31, 0xc6, 0x29, 0xbe, 0x6c, 0x03, 0x75, 0x3d, 0xdc, 0xa0, 0xd1, 0x3c,
  0x0f, 0x2c, 0x02, 0xbe, 0xd6, 0x4e, 0x08, 0xbc, 0x8e, 0xc2, 0xa6, 0x3d,
  0xba, 0xc2, 0x5a, 0xbe, 0xc8, 0xe6, 0x0a, 0xbd, 0x8e, 0xee, 0xc0, 0x3d,
  0x10, 0xa3, 0x07, 0xbe, 0xc3, 0x80, 0xf6, 0x3c, 0x6d, 0x34, 0xd7, 0x3d,
  0x96, 0xd8, 0x8b, 0xbc, 0xa6, 0xd7, 0x84, 0xbe, 0x16, 0x09, 0x98, 0x3d,
  0x70, 0xff, 0x3d, 0x3d, 0xaa, 0x00, 0xe1, 0xbb, 0xce, 0xfb, 0x1c, 0x3e,
  0x8e, 0x89, 0xac, 0xbd, 0x8c, 0x10, 0xa9, 0x3c, 0x8e, 0xed, 0x18, 0x3e,
  0x4e, 0xd7, 0x09, 0x3d, 0xd6, 0x77, 0x0a, 0x3e, 0x04, 0x2a, 0xd4, 0x3d,
  0xa3, 0x45, 0x51, 0x3d, 0xe4, 0x95, 0x59, 0xbe, 0xd9, 0xf5, 0x17, 0xbe,
  0x7d, 0x27, 0x60, 0x3c, 0x26, 0x0a, 0x78, 0xbd, 0x23, 0xf8, 0x1d, 0xbe,
  0x65, 0x09, 0xaa, 0x3d, 0xf3, 0xa2, 0x51, 0xbc, 0xf0, 0xdb, 0x65, 0xbd,
  0x7f, 0xbc, 0xd6, 0x3d, 0xde, 0x2e, 0xf9, 0xbd, 0xe3, 0x80, 0x23, 0x3c,
  0x72, 0xdf, 0x93, 0x3d, 0xb7, 0x9f, 0xdb, 0x3c, 0x08, 0x2d, 0x40, 0x3e,
  0x9f, 0xdd, 0x30, 0x3e, 0x60, 0x77, 0x3a, 0xbc, 0xe9, 0x3a, 0xdc, 0xbd,
  0x74, 0xd1, 0xa3, 0xbc, 0x42, 0xeb, 0x41, 0xbe, 0x17, 0x37, 0x4a, 0x3e,
  0x8a, 0x93, 0x8d, 0xbb, 0xb6, 0xb8, 0x84, 0x3b, 0x03, 0x69, 0xa5, 0x3d,
  0xb9, 0x24, 0x8d, 0x3d, 0xd6, 0x8d, 0x84, 0xbc, 0x5b, 0xd3, 0xae, 0x3d,
  0xfc, 0x3d, 0xbd, 0xbd, 0xc7, 0xbd, 0xe1, 0x3c, 0x1d, 0x89, 0x4f, 0x3e,
  0x29, 0x0d, 0xa4, 0xbd, 0xec, 0xfc, 0x16, 0x3d, 0x3b, 0xbf, 0x9a, 0xbd,
  0x19, 0xe7, 0x2c, 0x3d, 0x27, 0xe6, 0x04, 0xbe, 0xf7, 0x90, 0xd4, 0x3d,
  0x24, 0x42, 0xb6, 0x3c, 0x7f, 0xb5, 0x8a, 0xbe, 0xc0, 0x1a, 0xd1, 0xbd,
  0x9d, 0x90, 0x4d, 0x3e, 0xd8, 0x72, 0xa6, 0xbd, 0x87, 0x30, 0x70, 0x3c,
  0x80, 0x87, 0x5d, 0xbe, 0x39, 0x9c, 0x3c, 0x3d, 0x24, 0xc7, 0x4e, 0x3e,
  0xf9, 0x0a, 0xe4, 0x3d, 0x9c, 0x3d, 0xcb, 0x3c, 0xf0, 0xcd, 0x5e, 0x3e,
  0xba, 0xaa, 0x0a, 0x3e, 0x78, 0xe9, 0x33, 0xbd, 0xfc, 0xbb, 0xb2, 0xbd,
  0x8e, 0x9d, 0x06, 0x3e, 0xf9, 0x3c, 0xa8, 0x3d, 0x49, 0xaa, 0x44, 0x3e,
  0xfe, 0x32, 0x5d, 0x3e, 0xc3, 0x84, 0x9a, 0xbd, 0x41, 0x55, 0x0e, 0x3e,
  0xeb, 0xcf, 0xf0, 0x3d, 0x24, 0xa6, 0xa8, 0xbc, 0x27, 0x75, 0x93, 0x3c,
  0xfa, 0x30, 0xa7, 0x3d, 0xb4, 0xa2, 0x3a, 0xbe, 0x22, 0xbf, 0xc8, 0x3d,
  0xb1, 0xfb, 0x59, 0x3c, 0x5c, 0xc4, 0xe2, 0x3c, 0x46, 0xd5, 0x54, 0x3d,
  0xd0, 0x8b, 0x82, 0x3e, 0x8d, 0x38, 0xf4, 0x3c, 0x8b, 0x1d, 0x7c, 0xbc,
  0x96, 0x1b, 0x2d, 0xbd, 0xe0, 0x31, 0x45, 0x3e, 0xad, 0xd8, 0x48, 0x3d,
  0xab, 0xdf, 0x85, 0x3e, 0xef, 0x63, 0xf4, 0x3d, 0xc6, 0xaa, 0x7d, 0x3e,
  0x1c, 0xdf, 0x02, 0x3e, 0x36, 0x29, 0xc1, 0x3a, 0x38, 0x94, 0x1e, 0x3e,
  0xc1, 0x87, 0x40, 0x3e, 0xf4, 0x3b, 0x68, 0xbd, 0x39, 0xbf, 0x9c, 0xbd,
  0xee, 0x40, 0x1a, 0x3e, 0xc8, 0xc7, 0xe5, 0x3d, 0xc2, 0x8f, 0x0a, 0x3e,
  0xae, 0x44, 0x4f, 0x3d, 0x83, 0x42, 0x05, 0xbe, 0x95, 0xa3, 0xb3, 0x3c,
  0xa2, 0x85, 0xb2, 0x3d, 0xa5, 0xa3, 0x7f, 0x3e, 0x95, 0xbb, 0x8f, 0xbd,
  0x46, 0x13, 0x70, 0xbd, 0x5e, 0x5a, 0xa0, 0x3d, 0xad, 0xe0, 0x61, 0x3e,
  0x3c, 0xd5, 0xa5, 0x3d, 0x1c, 0x42, 0x45, 0x3e, 0x4e, 0x3f, 0xea, 0x3d,
  0x0d, 0xf3, 0xa3, 0x3d, 0xf2, 0xa3, 0xf7, 0x3b, 0x99, 0x61, 0x94, 0xbd,
  0x4c, 0x09, 0x31, 0xbd, 0x81, 0x26, 0x59, 0x3e, 0x88, 0x41, 0x33, 0x3c,
  0xc1, 0x54, 0x5c, 0x3d, 0x55, 0xa2, 0xe9, 0xbd, 0x39, 0x8c, 0x89, 0xbd,
  0x1d, 0x6d, 0x61, 0x3e, 0xf9, 0x77, 0x70, 0x3e, 0x98, 0xda, 0x25, 0x3e,
  0x38, 0x0d, 0x22, 0xbd, 0xf9, 0xf8, 0xb0, 0x3d, 0xba, 0xa2, 0xc3, 0x3d,
  0x59, 0xc8, 0xb1, 0x3d, 0x9d, 0x46, 0x89, 0x3d, 0x60, 0x47, 0x87, 0x3e,
  0x9a, 0xee, 0xeb, 0xbd, 0xbd, 0x5a, 0x2f, 0xba, 0x75, 0xf0, 0x29, 0xbc,
  0x55, 0x85, 0x46, 0x3e, 0xc3, 0x85, 0xca, 0x3d, 0x97, 0x3e, 0xf5, 0x3d,
  0xe3, 0x26, 0x90, 0xbd, 0xbf, 0x5f, 0x04, 0xbe, 0xd0, 0x9d, 0x09, 0x3e,
  0x8a, 0x98, 0xaa, 0x3d, 0x3e, 0x9c, 0xbb, 0x3d, 0xf0, 0xed, 0x56, 0x3d,
  0x4a, 0x3e, 0x33, 0xbe, 0x3e, 0xb1, 0xf3, 0x3b, 0xcf, 0x62, 0x25, 0xbc,
  0x26, 0xc8, 0xb6, 0xbb, 0x98, 0x86, 0x33, 0xbd, 0x68, 0x13, 0x71, 0x3e,
  0xda, 0x8a, 0x08, 0xbe, 0xec, 0x6d, 0x05, 0xbe, 0x25, 0xe7, 0x59, 0xbc,
  0x78, 0x51, 0x2f, 0x3d, 0xc9, 0x1c, 0xb6, 0xbd, 0x75, 0x40, 0x0f, 0x3d,
  0xc6, 0xa1, 0xbd, 0xbd, 0xc7, 0xea, 0x75, 0x3d, 0xde, 0x3c, 0x95, 0x3c,
  0xb5, 0xe5, 0x4a, 0x3e, 0x67, 0x6a, 0xfd, 0x3d, 0x6e, 0x64, 0x47, 0x3e,
  0xd1, 0x57, 0x22, 0xbe, 0x70, 0xb9, 0xc4, 0x3d, 0x4a, 0xf1, 0x5c, 0x3e,
  0x2b, 0x71, 0xdd, 0x3d, 0x95, 0xb7, 0x39, 0x3e, 0x33, 0xee, 0x19, 0x3e,
  0xd5, 0x59, 0x57, 0xbe, 0x2c, 0x4d, 0x10, 0xbd, 0x9f, 0xed, 0x72, 0xbd,
  0xe9, 0xc8, 0x90, 0xbd, 0x99, 0xd9, 0x27, 0x3d, 0xbe, 0x53, 0x62, 0xbd,
  0x2a, 0x29, 0xb0, 0x3b, 0x9d, 0x55, 0x4a, 0x3d, 0x24, 0x20, 0x89, 0xbd,
  0x3c, 0xdd, 0x2d, 0xbd, 0xe4, 0x65, 0x54, 0xbd, 0x2b, 0x10, 0x28, 0x3e,
  0x9f, 0x43, 0x78, 0xbd, 0x12, 0x5a, 0x0c, 0xbe, 0xc4, 0x64, 0x12, 0x3d,
  0xc6, 0xc1, 0xa7, 0x3d, 0x89, 0x49, 0x0e, 0x3e, 0x6b, 0xd4, 0x49, 0x3e,
  0x4c, 0xec, 0x18, 0xbe, 0xdc, 0x81, 0xe8, 0xbd, 0x2f, 0x55, 0xac, 0x3d,
  0xc1, 0xc8, 0x55, 0x3c, 0x7d, 0xee, 0x18, 0xbd, 0x8e, 0xbb, 0xb0, 0x3d,
  0x4e, 0xfa, 0x2c, 0xbe, 0x45, 0xee, 0xab, 0xbd, 0xf1, 0xef, 0x2d, 0x3d,
  0x59, 0xde, 0x40, 0xba, 0x27, 0x38, 0x89, 0xbd, 0x36, 0xa4, 0xbb, 0xbd,
  0xbd, 0xa0, 0x22, 0xbd, 0x48, 0x62, 0x58, 0xbd, 0xc9, 0x2f, 0x00, 0x3e,
  0x51, 0x6f, 0x28, 0x3e, 0xcd, 0xe6, 0xc8, 0x3d, 0xe4, 0xa1, 0xec, 0x3d,
  0x0c, 0x7c, 0x28, 0xbe, 0xd0, 0xa0, 0x32, 0x3d, 0x44, 0xa3, 0x66, 0xbd,
  0x36, 0xc0, 0xd6, 0x3b, 0x04, 0x6c, 0x74, 0x3e, 0x30, 0xcb, 0x51, 0x3d,
  0xd2, 0xa5, 0x3f, 0xbe, 0x37, 0x21, 0x0b, 0xbe, 0xe7, 0x39, 0x2e, 0x3d,
  0x25, 0xb9, 0x7d, 0xbc, 0x90, 0xbe, 0x2f, 0x3e, 0xa0, 0x2c, 0x7a, 0x3e,
  0x4b, 0xde, 0x0c, 0x3c, 0xd3, 0x6c, 0x5f, 0x3d, 0xb8, 0xd3, 0xc5, 0x3d,
  0xba, 0xc7, 0x4d, 0x3d, 0xd5, 0x97, 0xf8, 0x3d, 0x36, 0xbd, 0x1a, 0x3d,
  0x96, 0xf5, 0xa1, 0xbd, 0x84, 0xa1, 0x3a, 0x3d, 0xee, 0x24, 0xcd, 0x3d,
  0x21, 0xd0, 0xac, 0x3c, 0x18, 0x3a, 0xd4, 0x3d, 0x07, 0xd1, 0x1d, 0x3c,
  0x8a, 0xb2, 0x4e, 0xbd, 0xd7, 0xbc, 0x16, 0x3d, 0xd5, 0x34, 0x2c, 0x3d,
  0x90, 0x3b, 0x49, 0xbc, 0x38, 0x53, 0x28, 0x3e, 0x4f, 0xb9, 0xe5, 0x3d,
  0xd9, 0xe7, 0x33, 0xbe, 0x20, 0xdd, 0xbe, 0xbd, 0x74, 0x71, 0x6b, 0x3e,
  0x27, 0x73, 0x90, 0xbd, 0x90, 0x23, 0x22, 0x3e, 0x59, 0xeb, 0xd0, 0xbc,
  0xc2, 0xec, 0x8a, 0xbb, 0x71, 0x6a, 0x04, 0xbd, 0x83, 0x59, 0xc7, 0x3d,
  0xcb, 0x2f, 0xa2, 0x3c, 0x8d, 0x46, 0x94, 0x3d, 0x95, 0x90, 0x2c, 0x3e,
  0x29, 0x5c, 0xd1, 0xbd, 0x95, 0x75, 0xa3, 0xbd, 0x67, 0x92, 0xe6, 0xbd,
  0xa0, 0x3e, 0x57, 0xbd, 0x8c, 0x18, 0xf6, 0x3d, 0x04, 0x05, 0x1c, 0x3e,
  0xf5, 0x85, 0x07, 0xbe, 0xa4, 0x1d, 0x7c, 0xbd, 0x74, 0x14, 0x96, 0x3d,
  0xcc, 0xa5, 0x65, 0x3d, 0x75, 0x87, 0x00, 0x3e, 0x31, 0x04, 0x1b, 0x3e,
  0x27, 0x5b, 0xd5, 0x3d, 0x2a, 0x72, 0x8d, 0xbd, 0x19, 0x8c, 0x27, 0x3d,
  0x3a, 0x6f, 0xad, 0x3d, 0x59, 0xc6, 0x13, 0xbd, 0x77, 0x15, 0x2f, 0x3e,
  0x26, 0x87, 0x04, 0x3e, 0x04, 0x86, 0x00, 0x3e, 0x86, 0x41, 0xb6, 0xbd,
  0x37, 0xfb, 0xe8, 0xbc, 0x02, 0x1c, 0x96, 0x3d, 0xed, 0x4c, 0x9c, 0x3d,
  0xcb, 0xe6, 0x05, 0x3e, 0xc3, 0x77, 0x56, 0xbc, 0x6a, 0xe9, 0xbc, 0x3d,
  0xe0, 0xb6, 0x16, 0x3e, 0xc4, 0x7e, 0x8c, 0x3c, 0x17, 0x4a, 0x3e, 0x3e,
  0xd6, 0x5f, 0x18, 0xbe, 0xc6, 0x7d, 0xbc, 0x3c, 0x67, 0x43, 0x9a, 0xbd,
  0x34, 0xa3, 0x30, 0xbd, 0x93, 0x68, 0xb2, 0xbc, 0x4c, 0x7e, 0xe8, 0x3d,
  0xb9, 0x6e, 0xc8, 0x3d, 0xbc, 0xef, 0x5c, 0xbd, 0x2e, 0x4c, 0xbd, 0xbd,
  0x51, 0xf8, 0x92, 0xbb, 0x76, 0xc5, 0x3c, 0x3d, 0xcd, 0xc1, 0x9b, 0xbd,
  0x47, 0x47, 0xe5, 0xbd, 0x2d, 0xf7, 0x8b, 0xbd, 0xf6, 0x60, 0xed, 0xbb,
  0x3d, 0xcd, 0x01, 0x3d, 0xd6, 0xd6, 0xb3, 0x3c, 0xc9, 0x35, 0xc2, 0xbd,
  0xe2, 0xba, 0x4e, 0x3d, 0x2c, 0xec, 0xba, 0x3d, 0x8c, 0x69, 0x20, 0x3d,
  0x6c, 0xab, 0x25, 0x3e, 0x4d, 0xb1, 0xa0, 0x3c, 0xbd, 0x46, 0x10, 0x3e,
  0x4f, 0x5e, 0xef, 0x3d, 0xa2, 0x98, 0xe2, 0x3d, 0xd2, 0x48, 0x10, 0xbe,
  0x1a, 0x2d, 0xa1, 0xba, 0x2e, 0x89, 0xff, 0xbd, 0x7a, 0x3d, 0x1b, 0xbe,
  0x36, 0x32, 0x07, 0xbe, 0xd3, 0x91, 0x36, 0x3e, 0x3e, 0xeb, 0x97, 0x3d,
  0x1f, 0xb1, 0x77, 0xbb, 0x50, 0x46, 0x14, 0x3d, 0x22, 0x27, 0x04, 0xbe,
  0xda, 0x56, 0x07, 0xbe, 0x5f, 0xd3, 0xf4, 0xbd, 0x9e, 0xf6, 0xb2, 0x3d,
  0xaf, 0xd2, 0x14, 0x3e, 0xa8, 0xce, 0x3b, 0x3d, 0x58, 0xe2, 0x0e, 0xbe,
  0xe6, 0xcb, 0x96, 0x3d, 0x2f, 0x55, 0x56, 0x3b, 0xbc, 0xec, 0x06, 0xbe,
  0x4f, 0x57, 0xbd, 0x3c, 0xbc, 0xc7, 0x1f, 0xbe, 0x8a, 0xef, 0x97, 0xba,
  0x45, 0x46, 0x0b, 0xbe, 0x86, 0x60, 0xfa, 0xbd, 0xfc, 0x79, 0x0d, 0x3e,
  0x49, 0x80, 0xee, 0xbc, 0x48, 0x4b, 0xec, 0xbd, 0xd2, 0xa0, 0x81, 0x3d,
  0x22, 0xf7, 0x01, 0x3e, 0xc2, 0x42, 0x48, 0x3e, 0x2a, 0xf5, 0x75, 0xbd,
  0x12, 0xbf, 0xb4, 0x3d, 0xf1, 0x09, 0x33, 0x3e, 0x57, 0xdd, 0xc9, 0xbd,
  0x22, 0x2c, 0x26, 0x3e, 0xcd, 0xeb, 0x4d, 0x3e, 0x9a, 0x33, 0xc7, 0x3d,
  0x95, 0xab, 0x41, 0xbd, 0xa8, 0x98, 0x5e, 0x3d, 0xb7, 0xec, 0xb5, 0x3d,
  0x2c, 0xce, 0x42, 0x3e, 0x79, 0x53, 0x40, 0x3e, 0xde, 0x5d, 0x20, 0x3e,
  0x03, 0xe1, 0x45, 0x3b, 0x42, 0xc6, 0x1a, 0xbc, 0x91, 0x0c, 0x14, 0xbe,
  0x19, 0xf9, 0xc4, 0x3c, 0xc2, 0xb0, 0x05, 0xbe, 0xca, 0xf8, 0xd6, 0xbc,
  0x5c, 0x11, 0x1b, 0xbe, 0xf8, 0xb2, 0x05, 0xbe, 0x4a, 0x64, 0xca, 0x3c,
  0xfb, 0xd5, 0x37, 0x3e, 0xb8, 0x3e, 0xf1, 0xbd, 0x69, 0x1f, 0xd4, 0xbc,
  0x79, 0x7b, 0x27, 0x3e, 0xef, 0xf2, 0x9b, 0xbc, 0x8f, 0xae, 0x8b, 0x3d,
  0xeb, 0xbd, 0x96, 0x3d, 0xd5, 0x0c, 0x06, 0x3e, 0xbf, 0xd9, 0x14, 0x3e,
  0x40, 0xfd, 0x33, 0xbc, 0x2a, 0xfc, 0xd9, 0xbd, 0xf1, 0x83, 0xa5, 0x3c,
  0xbd, 0x24, 0x2a, 0x3e, 0xed, 0x43, 0xe8, 0xbd, 0x97, 0x58, 0x11, 0x3e,
  0x97, 0x05, 0xd7, 0xbd, 0xf3, 0x0b, 0x07, 0x3e, 0xee, 0x3b, 0x01, 0xbe,
  0xb9, 0xfe, 0x58, 0xbc, 0x95, 0x4d, 0x9f, 0xbd, 0x14, 0x1d, 0xe2, 0x3c,
  0x61, 0xd4, 0x17, 0x3d, 0x14, 0xd9, 0x19, 0xbe, 0x9e, 0xe3, 0x39, 0x3e,
  0x52, 0x94, 0x14, 0xbe, 0xfe, 0x13, 0x23, 0x3e, 0xdd, 0xbd, 0xbf, 0x3d,
  0x41, 0x74, 0xc5, 0xbd, 0xdc, 0x50, 0xb8, 0x3d, 0x6b, 0x42, 0x1e, 0x3e,
  0x69, 0xf5, 0xd2, 0x3d, 0x46, 0xbe, 0xf4, 0xbd, 0x41, 0x01, 0x83, 0x3d,
  0x07, 0x36, 0x1e, 0xbd, 0x7d, 0x33, 0x15, 0x3e, 0x75, 0x45, 0x06, 0xbe,
  0x9e, 0xdd, 0x30, 0x3e, 0xe0, 0x02, 0xbd, 0x3b, 0x82, 0xe5, 0x11, 0xbe,
  0x74, 0x8f, 0x9f, 0x3d, 0xf8, 0xd6, 0x88, 0x3d, 0x8d, 0x8a, 0x2e, 0x3e,
  0x00, 0x9d, 0x69, 0xbc, 0x19, 0xa8, 0xb7, 0x3c, 0x15, 0x7d, 0x20, 0xbe,
  0xdf, 0xa4, 0x25, 0xbd, 0xea, 0x78, 0x8b, 0xbc, 0x44, 0x67, 0x25, 0xbd,
  0xd3, 0xa1, 0x96, 0x3d, 0xa1, 0x67, 0x41, 0x3e, 0x35, 0xda, 0x5e, 0xbb,
  0xb3, 0x6d, 0x25, 0x3d, 0x80, 0xd4, 0xdb, 0xbb, 0x3c, 0x95, 0x0e, 0xbe,
  0x65, 0x1e, 0x28, 0x3e, 0xec, 0x71, 0x91, 0xbd, 0xa8, 0x29, 0x47, 0xbd,
  0x77, 0x62, 0x47, 0xbd, 0x78, 0xd4, 0x9f, 0x3d, 0xcd, 0xa1, 0x9b, 0xbd,
  0x06, 0x6a, 0x9b, 0x3d, 0xc2, 0x92, 0x15, 0x3d, 0x5d, 0xbc, 0xf9, 0x3c,
  0x0c, 0x6b, 0x32, 0x3d, 0x18, 0xb0, 0xf3, 0xbd, 0xee, 0xd6, 0xd4, 0xbd,
  0xa6, 0x29, 0x09, 0xbe, 0x09, 0x91, 0xd1, 0xbd, 0x25, 0x6b, 0x21, 0x3e,
  0x2b, 0xbb, 0x0e, 0xbe, 0x5e, 0xaa, 0xb4, 0x3d, 0xc1, 0x66, 0x08, 0x3e,
  0x9e, 0x3a, 0xc3, 0xbd, 0xf2, 0x26, 0x09, 0xbe, 0x30, 0x09, 0xac, 0x3c,
  0x4c, 0x1a, 0x16, 0x3d, 0xa0, 0xe8, 0x14, 0xbc, 0x6a, 0xd1, 0xd6, 0x3d,
  0xbe, 0x32, 0xe4, 0x3d, 0x97, 0x0b, 0x17, 0x3e, 0x22, 0x2d, 0x0d, 0xbe,
  0x30, 0x85, 0x80, 0x3d, 0xc8, 0x3c, 0xb5, 0x3c, 0x78, 0xb5, 0x33, 0x3d,
  0x06, 0x2a, 0xed, 0xbd, 0xbb, 0xcf, 0x29, 0x3e, 0xca, 0x65, 0xc3, 0xbd,
  0x53, 0x0e, 0x22, 0xbe, 0x9c, 0x50, 0x9f, 0x3d, 0xa0, 0x6d, 0x72, 0x3d,
  0x9a, 0x90, 0xf3, 0xbd, 0xd0, 0x23, 0x42, 0xbc, 0x5a, 0x57, 0xe5, 0x3d,
  0x95, 0x81, 0xa8, 0xbd, 0xdc, 0xb4, 0x86, 0x3d, 0x73, 0x53, 0x12, 0x3e,
  0xa1, 0x9a, 0x1f, 0x3e, 0x78, 0x0d, 0xb4, 0x3c, 0xed, 0x17, 0x1f, 0xbe,
  0x9a, 0xed, 0x24, 0xbe, 0x07, 0x0c, 0x25, 0x3e, 0xc0, 0xbc, 0xad, 0x3b,
  0xdc, 0xd6, 0x00, 0x3d, 0x28, 0xcf, 0xd8, 0xbc, 0x60, 0x39, 0x29, 0xbd,
  0x40, 0x40, 0xa9, 0xbd, 0x04, 0xee, 0x0c, 0xbe, 0xbf, 0x2f, 0x16, 0x3e,
  0x60, 0x4b, 0x1c, 0xbe, 0x2c, 0x66, 0x5e, 0xbd, 0x76, 0x51, 0x27, 0xbe,
  0x8e, 0x56, 0xa8, 0xbd, 0x3d, 0x2c, 0x0f, 0x3e, 0x9c, 0xac, 0x1b, 0xbd,
  0x4c, 0x68, 0x2e, 0xbd, 0x60, 0x08, 0x7f, 0xbc, 0x48, 0x49, 0xe1, 0xbd,
  0x8c, 0x73, 0x9d, 0xbd, 0xa4, 0xb5, 0x97, 0x3d, 0x5c, 0x9c, 0xc3, 0xbd,
  0xb8, 0x34, 0x66, 0x3d, 0x0e, 0xef, 0x21, 0xbe, 0x80, 0xf9, 0xd7, 0x3c,
  0x8e, 0xb2, 0xdb, 0x3d, 0xc4, 0x5a, 0x29, 0xbd, 0xf6, 0x01, 0x0f, 0xbe,
  0xe0, 0x34, 0xa1, 0x3b, 0x9b, 0xd2, 0x01, 0x3e, 0xc9, 0xa0, 0x0e, 0x3e,
  0xfa, 0x38, 0xaa, 0x3d, 0xae, 0x0a, 0xda, 0x3d, 0x90, 0xc7, 0x0f, 0xbe,
  0x19, 0x2c, 0xc5, 0xbd, 0xde, 0x41, 0xcf, 0xbd, 0xc1, 0x44, 0x11, 0xbe,
  0x69, 0x19, 0xd3, 0xbd, 0x11, 0x04, 0x2c, 0xbe, 0x6c, 0x74, 0x4f, 0x3d,
  0x25, 0x6b, 0x98, 0xbd, 0x30, 0x2a, 0xb3, 0x3c, 0xc0, 0xb0, 0xa5, 0x3d,
  0xce, 0x85, 0x97, 0x3d, 0xc7, 0x7a, 0x89, 0xbd, 0xb5, 0xcb, 0x15, 0x3e,
  0x7a, 0xb6, 0xa9, 0xbd, 0x24, 0x8a, 0x10, 0xbe, 0x70, 0xa6, 0xb5, 0x3c,
  0x92, 0xc0, 0xed, 0xbd, 0xcd, 0x2e, 0x08, 0x3e, 0x90, 0xa4, 0x69, 0x3c,
  0x90, 0x64, 0xa2, 0x3d, 0x12, 0x25, 0xb3, 0x3d, 0x2a, 0xc7, 0xba, 0x3d,
  0xc0, 0x3e, 0xad, 0xbc, 0xd2, 0x4d, 0x9d, 0x3d, 0x0f, 0xae, 0x00, 0xbe,
  0xbc, 0x87, 0x0a, 0xbd, 0xed, 0x0c, 0xaa, 0xbd, 0x06, 0x87, 0x07, 0xbe,
  0x6c, 0x66, 0x77, 0xbd, 0xd2, 0x61, 0xbd, 0x3d, 0x3b, 0x1c, 0xd3, 0xbd,
  0xd6, 0xc3, 0xbe, 0x3d, 0x90, 0x9b, 0x56, 0x3c, 0x3e, 0x66, 0xa8, 0xbd,
  0x6e, 0x28, 0xa9, 0x3d, 0x18, 0x09, 0x17, 0xbd, 0xb0, 0x6a, 0xc6, 0xbc,
  0xf8, 0x78, 0x90, 0x3c, 0xad, 0x19, 0xd2, 0xbd, 0x56, 0x8c, 0x8c, 0x3d,
  0x93, 0xed, 0x1b, 0x3e, 0x26, 0xbd, 0xe5, 0x3d, 0xee, 0x72, 0xaf, 0xbd,
  0x9c, 0xea, 0xc3, 0xbd, 0x15, 0xf7, 0x01, 0x3e, 0x08, 0x2b, 0x03, 0xbd,
  0xfc, 0xae, 0x08, 0xbe, 0x90, 0xd9, 0x0f, 0xbc, 0x3e, 0xce, 0xa0, 0xbd,
  0x44, 0x75, 0x43, 0x3d, 0x90, 0xcb, 0xe9, 0xbd, 0xb8, 0x64, 0x2c, 0xbd,
  0x74, 0x5b, 0x0b, 0x3d, 0x0d, 0x0d, 0x01, 0x3e, 0xad, 0x72, 0xbf, 0xbd,
  0x33, 0xd9, 0x08, 0x3e, 0x00, 0x42, 0xe5, 0xb9, 0x6c, 0x1d, 0x11, 0x3d,
  0xc4, 0x63, 0x88, 0x3d, 0xda, 0x56, 0xf8, 0x3d, 0xc6, 0x2e, 0xe3, 0xbd,
  0xdb, 0xfa, 0xe2, 0xbd, 0xa0, 0x26, 0x2a, 0x3d, 0x00, 0xab, 0xba, 0x3a,
  0xac, 0xdf, 0x07, 0xbe, 0x0b, 0xe2, 0x10, 0xbe, 0x00, 0x17, 0x22, 0xbe,
  0xd0, 0xac, 0x27, 0x3c, 0xa0, 0xc0, 0x50, 0x3c, 0xce, 0x73, 0x14, 0xbe,
  0xfc, 0x87, 0xb3, 0xbd, 0x90, 0x0e, 0x29, 0xbd, 0x5b, 0xce, 0x0a, 0x3e,
  0xf7, 0xe4, 0x0e, 0xbe, 0x58, 0xfd, 0xf2, 0xbc, 0xce, 0xb7, 0x6a, 0xbd,
  0xb8, 0xa0, 0x9d, 0x3d, 0x18, 0x76, 0xcc, 0x3c, 0xf6, 0x3c, 0xa7, 0x3d,
  0x5e, 0x25, 0xf6, 0x3d, 0xe8, 0x35, 0xd8, 0x3c, 0x10, 0xe5, 0xde, 0xbd,
  0x50, 0xb9, 0x87, 0xbc, 0x64, 0x7f, 0x13, 0xbd, 0x58, 0x0e, 0xa7, 0x3c,
  0x20, 0x7e, 0xa7, 0xbd, 0xe7, 0x30, 0x1d, 0x3e, 0x63, 0x45, 0x20, 0xbe,
  0xee, 0xc4, 0x4a, 0xbd, 0x47, 0xd5, 0xdf, 0xbd, 0xd4, 0xdb, 0x33, 0xbd,
  0xf8, 0x7f, 0x92, 0x3d, 0xc3, 0xa8, 0x15, 0xbe, 0xef, 0xb5, 0x2b, 0x3e,
  0x0b, 0x7f, 0x1e, 0x3e, 0xc0, 0x6e, 0x09, 0xbe, 0xcb, 0x99, 0xa6, 0xbd,
  0x16, 0x23, 0x8f, 0x3d, 0xb0, 0xe3, 0x02, 0x3c, 0x18, 0x6b, 0x2b, 0xbd,
  0x0f, 0x48, 0xc7, 0xbd, 0x82, 0xfe, 0xe8, 0x3d, 0x0c, 0xf2, 0x23, 0x3d,
  0xb4, 0x98, 0x61, 0x3d, 0x12, 0x8b, 0xdc, 0xbd, 0x22, 0x10, 0xaf, 0x3d,
  0x33, 0x39, 0xab, 0xbd, 0x82, 0x1f, 0xc6, 0x3d, 0xea, 0xb8, 0xff, 0x3d,
  0x3c, 0x88, 0x29, 0xbd, 0x09, 0x17, 0xa9, 0xbd, 0xee, 0x2a, 0xfb, 0x3d,
  0x46, 0x43, 0x8e, 0xbd, 0x2d, 0x46, 0x13, 0xbe, 0x1e, 0x0e, 0xb9, 0x3d,
  0xc8, 0x4a, 0xfb, 0x3c, 0xdb, 0x07, 0xe7, 0xbd, 0x7f, 0x9a, 0x27, 0xbe,
  0x48, 0x11, 0x27, 0xbe, 0x46, 0xca, 0xee, 0x3d, 0x74, 0x9b, 0xe3, 0x3d,
  0x1c, 0x4d, 0x94, 0x3d, 0x41, 0x9b, 0x54, 0x3c, 0xfe, 0x2f, 0xb8, 0xbd,
  0x49, 0x84, 0x24, 0x3e, 0x38, 0x90, 0xbb, 0xbd, 0x54, 0x5f, 0xba, 0x3d,
  0x34, 0xe9, 0xf8, 0xbd, 0x86, 0xba, 0x9c, 0x3d, 0x9a, 0x96, 0xd7, 0x3d,
  0xb7, 0x7b, 0xa6, 0xbd, 0x31, 0x36, 0xbe, 0xbd, 0xb0, 0x37, 0x1f, 0x3e,
  0x58, 0x48, 0x80, 0xbd, 0x69, 0xac, 0x44, 0xbd, 0xb0, 0x29, 0xba, 0x3c,
  0x44, 0xd8, 0xfd, 0xbc, 0x8a, 0x2f, 0x82, 0xbd, 0x2a, 0x98, 0x14, 0xbd,
  0xb9, 0xcd, 0xa0, 0xbb, 0xf3, 0x28, 0x05, 0x3e, 0xa2, 0x35, 0x02, 0xbe,
  0x20, 0x74, 0x24, 0xbe, 0x26, 0x3b, 0xda, 0xbd, 0x8e, 0xe4, 0xb7, 0xbc,
  0x42, 0x26, 0x6c, 0x3d, 0x3e, 0x1d, 0x1f, 0x3e, 0x7c, 0xe7, 0x03, 0xbd,
  0x3e, 0x51, 0x83, 0x3d, 0x80, 0x98, 0xcc, 0xbd, 0xac, 0x1e, 0xe6, 0x3d,
  0x33, 0x25, 0x07, 0x3e, 0x15, 0x50, 0x00, 0x3e, 0xa4, 0x27, 0x30, 0xbe,
  0x96, 0xf7, 0x06, 0x3e, 0xf5, 0x4d, 0xa8, 0xbd, 0xbe, 0x5f, 0x0b, 0x3e,
  0x10, 0x22, 0x78, 0xbc, 0x38, 0x13, 0x17, 0xbe, 0x4b, 0xe9, 0xc2, 0x3d,
  0x2c, 0x5e, 0xde, 0x3d, 0xb2, 0x72, 0x03, 0xbc, 0xd0, 0x81, 0x6c, 0x3c,
  0xd2, 0x95, 0x26, 0xbe, 0x16, 0x0c, 0x93, 0xbd, 0x7e, 0xb8, 0x26, 0xbe,
  0x2a, 0x95, 0x0f, 0x3e, 0x50, 0xa3, 0x85, 0xbd, 0xaa, 0x89, 0xd5, 0x3c,
  0x5c, 0x5a, 0x94, 0x3d, 0x02, 0x3b, 0x26, 0xbe, 0xb8, 0x7d, 0x51, 0x3d,
  0xea, 0x75, 0xca, 0xbd, 0x38, 0x5d, 0x14, 0x3d, 0xff, 0x01, 0xec, 0xbd,
  0xf6, 0x74, 0xe8, 0x3d, 0xba, 0x6d, 0xeb, 0x3d, 0x8a, 0xd5, 0x0a, 0xbd,
  0xb3, 0x50, 0xa1, 0xbd, 0x21, 0xc0, 0x91, 0xbd, 0xd2, 0x7f, 0xd0, 0x3c,
  0xb4, 0x17, 0x05, 0x3d, 0x42, 0xfe, 0xbe, 0x3d, 0x77, 0x84, 0xad, 0x3d,
  0x43, 0xa2, 0xf3, 0x3d, 0x8a, 0xc7, 0xf9, 0xbc, 0x6a, 0x8d, 0x78, 0xbd,
  0xf3, 0x5e, 0x11, 0xbe, 0xe1, 0x41, 0x9b, 0x3d, 0x5e, 0x46, 0x41, 0xbd,
  0xfc, 0xcb, 0xe2, 0xbd, 0xe6, 0x19, 0x1b, 0x3e, 0xfd, 0x93, 0x91, 0xbd,
  0xe7, 0x77, 0x17, 0xbe, 0xba, 0x57, 0x21, 0xbd, 0x17, 0xa5, 0x14, 0xbe,
  0xae, 0xe5, 0x11, 0x3e, 0x35, 0x06, 0xce, 0x3d, 0x41, 0x64, 0x9e, 0xbd,
  0x0b, 0x9d, 0x0a, 0x3e, 0xc5, 0x86, 0x60, 0xbd, 0xa6, 0x86, 0xfc, 0x3d,
  0x18, 0x1c, 0x88, 0x3d, 0x82, 0x18, 0xb4, 0x3d, 0x4c, 0xb9, 0x03, 0xbd,
  0xb7, 0xa2, 0x88, 0xbd, 0x8d, 0x8f, 0x20, 0x3e, 0x9b, 0x7c, 0x1e, 0x3e,
  0xe7, 0x24, 0xc9, 0xbd, 0xc7, 0x5d, 0x21, 0xbe, 0x3b, 0x66, 0xac, 0xbd,
  0x6d, 0xa9, 0x31, 0xbe, 0xa6, 0x4c, 0x17, 0x3e, 0xe6, 0xa8, 0x74, 0xbd,
  0xe8, 0xa5, 0xb6, 0x3c, 0x79, 0x09, 0xa7, 0xbd, 0x4f, 0x08, 0x81, 0x3d,
  0xa4, 0xe7, 0xcc, 0x3c, 0xa8, 0xea, 0xf6, 0x3d, 0x6c, 0xde, 0xfb, 0x3d,
  0xe0, 0x16, 0x23, 0x3e, 0xa4, 0x41, 0x03, 0xbe, 0xf4, 0x89, 0x60, 0xbd,
  0x45, 0x1d, 0xca, 0xbb, 0x2a, 0x3d, 0x16, 0x3e, 0x9c, 0xe4, 0x9b, 0x3c,
  0x27, 0xa3, 0xaf, 0x3b, 0xc6, 0x7c, 0x2c, 0xbe, 0xd6, 0x44, 0x34, 0xbd,
  0xaa, 0xe5, 0xbc, 0xbd, 0xc7, 0x10, 0xc1, 0xbd, 0xd5, 0xe7, 0x1d, 0xbe,
  0xc4, 0x4d, 0xc9, 0x3d, 0xc4, 0x9e, 0x99, 0x3a, 0x6d, 0x0d, 0x30, 0xbe,
  0x0e, 0x59, 0x87, 0x3d, 0xa2, 0x5f, 0x1c, 0xbe, 0x97, 0x55, 0x8d, 0xbd,
  0x91, 0x4f, 0x91, 0xbd, 0x3e, 0x47, 0x2a, 0xbc, 0xba, 0x27, 0x2a, 0xbe,
  0x19, 0xfd, 0x12, 0x3e, 0x40, 0x9b, 0x21, 0xbe, 0x59, 0x1a, 0x70, 0xbc,
  0x21, 0x03, 0x10, 0xbe, 0x91, 0x87, 0x6f, 0x3c, 0xe0, 0x19, 0x01, 0xbd,
  0x36, 0x43, 0x98, 0xbd, 0xb3, 0xc1, 0xa2, 0x3d, 0x23, 0x41, 0x8e, 0xbb,
  0xf6, 0x1a, 0x1b, 0xbe, 0x7c, 0x1f, 0x18, 0x3e, 0xd9, 0xb1, 0x3b, 0xbd,
  0xac, 0x92, 0x0f, 0xbe, 0xb6, 0xde, 0xca, 0xbd, 0x5e, 0x87, 0x99, 0x3d,
  0xec, 0xe9, 0x20, 0xbe, 0xfc, 0xf2, 0x89, 0x3d, 0x1d, 0x94, 0xee, 0x3d,
  0x40, 0x19, 0x2e, 0x3c, 0x30, 0xc7, 0x8a, 0x3a, 0x6c, 0x44, 0xa9, 0x3d,
  0x5d, 0x12, 0xa2, 0x3d, 0x1a, 0x21, 0x83, 0x3d, 0xdc, 0x0b, 0xef, 0x3d,
  0x28, 0x88, 0xee, 0xbd, 0xdd, 0x67, 0xf5, 0xbd, 0x35, 0xe4, 0x1b, 0x3d,
  0x87, 0x37, 0xce, 0xbd, 0x5f, 0x3e, 0xc3, 0x3d, 0xe3, 0x41, 0xb8, 0xbd,
  0x3a, 0xdc, 0x1e, 0xbe, 0x51, 0x6e, 0xf3, 0xbd, 0xe1, 0xa4, 0x7a, 0xbd,
  0x41, 0x9a, 0xf2, 0xbc, 0x72, 0x31, 0xee, 0x3d, 0x20, 0x27, 0xad, 0xbd,
  0xd6, 0x9d, 0x08, 0xbe, 0x56, 0x41, 0xc3, 0x3d, 0xec, 0x58, 0x31, 0xbe,
  0x7b, 0x01, 0xf0, 0x3d, 0x49, 0xa8, 0xe2, 0xbc, 0x1e, 0x29, 0xc0, 0xbd,
  0xb2, 0x29, 0x92, 0x3d, 0xf1, 0x35, 0xc6, 0x3d, 0xea, 0x15, 0x0a, 0xbe,
  0xae, 0xb9, 0x47, 0x3d, 0x9c, 0x6b, 0xe8, 0xbc, 0x12, 0x90, 0xb9, 0x3c,
  0xbb, 0x5d, 0xf1, 0xbd, 0x65, 0xc5, 0x25, 0x3d, 0x3c, 0xfe, 0xa1, 0xbd,
  0x8a, 0x0a, 0x03, 0x3e, 0x1b, 0xbe, 0x0c, 0xbe, 0xc0, 0x7c, 0x94, 0x3c,
  0x6c, 0xd4, 0xe3, 0xbd, 0x08, 0xba, 0x1d, 0xbe, 0xc8, 0xaf, 0x17, 0x3d,
  0x40, 0x11, 0xfc, 0xbc, 0xd1, 0x5c, 0xa3, 0x3c, 0x63, 0x66, 0xb7, 0xbd,
  0x98, 0x4d, 0xe5, 0x3d, 0x5d, 0x91, 0x02, 0xbc, 0x19, 0xc5, 0x47, 0xbd,
  0xe1, 0x9e, 0x19, 0x3c, 0x46, 0xf0, 0x2f, 0x3d, 0xec, 0xfd, 0xab, 0xbd,
  0x2e, 0xf7, 0x38, 0x3d, 0x3d, 0xb2, 0x8b, 0xbd, 0xa2, 0xb2, 0xb5, 0xbd,
  0x78, 0x47, 0xc0, 0x3d, 0x10, 0x10, 0x85, 0x3d, 0x81, 0x61, 0xed, 0xbd,
  0x23, 0xbc, 0x96, 0xbd, 0x71, 0x3c, 0x19, 0x3d, 0xa8, 0x0e, 0x1b, 0x3d,
  0xde, 0xbe, 0x2b, 0x3d, 0xae, 0xcd, 0x4c, 0xbd, 0x49, 0x7e, 0x85, 0x3d,
  0xa2, 0x96, 0xb0, 0xbd, 0x29, 0xb0, 0x70, 0xbd, 0x55, 0x12, 0xe6, 0x3d,
  0x81, 0xfb, 0x49, 0xbd, 0x4f, 0x1c, 0xb3, 0x3c, 0x9d, 0x43, 0x5e, 0x3c,
  0x7a, 0x0c, 0xbb, 0x3d, 0x21, 0x2d, 0xab, 0x3d, 0xcd, 0x51, 0x8b, 0x3d,
  0xd0, 0x4c, 0x48, 0xbd, 0xa5, 0xc1, 0xc9, 0xbd, 0xa6, 0x06, 0x40, 0x3b,
  0x75, 0xe7, 0xd6, 0x3c, 0x1f, 0xa1, 0x0c, 0xbe, 0x3d, 0xc4, 0x0e, 0x3e,
  0x5c, 0xeb, 0xfb, 0xbc, 0x47, 0x79, 0x10, 0xbe, 0x7e, 0x5d, 0x1f, 0x3e,
  0x89, 0xe9, 0x1f, 0x3c, 0x58, 0xdd, 0xfb, 0x3d, 0x0e, 0x3a, 0x28, 0x3e,
  0x3c, 0xfe, 0xb4, 0x3d, 0x41, 0x2f, 0x8d, 0x3d, 0x8f, 0x81, 0xce, 0xbd,
  0xa4, 0x88, 0x98, 0x3d, 0xdf, 0xb9, 0x51, 0xbe, 0x39, 0xa6, 0x0d, 0x3d,
  0x73, 0x4d, 0xed, 0x3d, 0xb2, 0xe3, 0x26, 0xbe, 0x75, 0xa7, 0x0f, 0x3e,
  0xd9, 0x78, 0x0a, 0xbe, 0xef, 0x88, 0xa7, 0x3d, 0x3b, 0xde, 0x87, 0xbd,
  0x1d, 0xff, 0x47, 0xbd, 0xb5, 0x10, 0x24, 0xbe, 0x9a, 0xe9, 0x30, 0x3e,
  0xb6, 0x3a, 0xae, 0xbd, 0x21, 0x45, 0x3f, 0x3d, 0x23, 0xf8, 0x0f, 0xbe,
  0x7d, 0xf8, 0x2d, 0x3e, 0xeb, 0xca, 0x61, 0xbd, 0x58, 0xfb, 0x0d, 0xbd,
  0x63, 0x4b, 0x4c, 0xbe, 0x35, 0x12, 0xcb, 0xbd, 0x0b, 0xa4, 0xfb, 0x3d,
  0xc1, 0x39, 0xec, 0x3d, 0xe8, 0x2c, 0x0b, 0x3d, 0x74, 0x39, 0x11, 0xbe,
  0x65, 0x63, 0x36, 0xbe, 0x94, 0xa6, 0x41, 0xbe, 0xd3, 0xf3, 0xab, 0x3c,
  0xf7, 0x1f, 0x7e, 0x3d, 0xd6, 0x92, 0x85, 0x3d, 0x9f, 0xa8, 0x0d, 0xbe,
  0x72, 0xe0, 0x3e, 0xbd, 0x54, 0xe0, 0xd9, 0xbd, 0x43, 0x51, 0x0e, 0xbd,
  0x9f, 0x05, 0xd7, 0xbd, 0x13, 0x99, 0xf3, 0xba, 0x31, 0x9a, 0xe8, 0x3d,
  0x04, 0x62, 0xd4, 0xbd, 0x4b, 0xad, 0xd4, 0xbc, 0xb0, 0x14, 0xdf, 0x3d,
  0xc9, 0xcc, 0x44, 0xbd, 0x86, 0xa2, 0x01, 0xbe, 0xe1, 0x82, 0xae, 0xbc,
  0x41, 0xde, 0x21, 0xbe, 0x2d, 0x4d, 0x38, 0xbd, 0xf9, 0x32, 0x03, 0x3e,
  0x37, 0xb6, 0xcf, 0xbc, 0xdb, 0xce, 0x64, 0x3d, 0x89, 0xe1, 0x38, 0xbc,
  0xab, 0x72, 0xa2, 0x3c, 0x3b, 0x4f, 0x03, 0x3e, 0x28, 0xea, 0x5e, 0x3d,
  0xbb, 0xd4, 0x11, 0x3e, 0x89, 0x7e, 0x89, 0xbc, 0x47, 0x0b, 0x59, 0xbd,
  0x9e, 0x65, 0x2e, 0x3c, 0x8d, 0xec, 0x36, 0x3d, 0xdb, 0x36, 0xa7, 0x3d,
  0x62, 0xef, 0xd8, 0xbc, 0x9c, 0x7e, 0xa9, 0xbd, 0x5e, 0x25, 0xac, 0x3d,
  0x3c, 0xbb, 0x56, 0xbe, 0xb3, 0x15, 0x97, 0xbc, 0x85, 0x6a, 0xe8, 0x3c,
  0x15, 0x76, 0x85, 0x3d, 0x9b, 0x7b, 0x51, 0x3d, 0x69, 0xa2, 0xfe, 0xbd,
  0x24, 0xb6, 0xa9, 0x3d, 0xba, 0x64, 0x4d, 0xbe, 0x98, 0x90, 0x7f, 0xbd,
  0x9b, 0x79, 0x26, 0xbe, 0x70, 0xbc, 0xdd, 0xbc, 0x6e, 0x89, 0x6b, 0x3c,
  0xdf, 0x21, 0xe4, 0xbd, 0xec, 0x2a, 0xa8, 0x3b, 0x58, 0x53, 0x79, 0x3d,
  0x92, 0xd6, 0xeb, 0xbc, 0x7c, 0x3d, 0xc0, 0xbd, 0xca, 0x77, 0x09, 0x3e,
  0x53, 0x42, 0xcc, 0x3d, 0xcd, 0x4c, 0x4f, 0x3d, 0xdf, 0x99, 0xdf, 0x3d,
  0x51, 0xc6, 0x82, 0x3c, 0xba, 0x49, 0x28, 0x3e, 0xd7, 0x1b, 0xbe, 0x3d,
  0x10, 0x57, 0xdf, 0xbd, 0x20, 0xeb, 0x99, 0xbd, 0x58, 0x34, 0xac, 0xbd,
  0x31, 0x6f, 0x48, 0x3d, 0x65, 0xa4, 0x26, 0xbe, 0xba, 0xb1, 0xd9, 0x3d,
  0xa3, 0x49, 0x9a, 0xbc, 0xae, 0x80, 0x2d, 0xbd, 0x5a, 0x45, 0x28, 0xbe,
  0x73, 0x48, 0xd1, 0xbb, 0xda, 0x3f, 0x51, 0x3d, 0x4a, 0x5c, 0x46, 0x3d,
  0x9e, 0x87, 0x1f, 0x3c, 0x03, 0xf4, 0xb1, 0x3c, 0x4a, 0x81, 0x6f, 0xbc,
  0xe4, 0x5d, 0x2d, 0x3e, 0x18, 0x43, 0x6a, 0x3d, 0x93, 0x75, 0xc7, 0xbd,
  0x1e, 0x31, 0x25, 0xbd, 0xc6, 0xb9, 0xc7, 0x3d, 0x4a, 0x10, 0x08, 0xbe,
  0xaf, 0x1c, 0x00, 0xbe, 0xf6, 0xb3, 0x04, 0x3c, 0xf9, 0x22, 0x14, 0x3e,
  0x0e, 0x80, 0x3d, 0xbe, 0x18, 0xc1, 0xd4, 0x3d, 0x66, 0x23, 0x8c, 0xbd,
  0x8e, 0x71, 0xe6, 0xbc, 0x86, 0x69, 0xb0, 0xbd, 0x64, 0x03, 0x2a, 0x3e,
  0xce, 0xd0, 0x06, 0x3e, 0xcb, 0xec, 0x2b, 0x3d, 0xc1, 0xfd, 0xbf, 0xbc,
  0xaa, 0xcc, 0x0c, 0x3d, 0x06, 0xf4, 0xd4, 0x3c, 0xf6, 0x79, 0x7f, 0xbd,
  0x0d, 0x20, 0xb2, 0xbd, 0xff, 0xa0, 0x9c, 0x3d, 0x54, 0x29, 0xab, 0xbd,
  0x20, 0x4f, 0x08, 0x3e, 0xa6, 0x3a, 0xf4, 0xbd, 0x4e, 0x3b, 0x28, 0x3e,
  0x9e, 0x4a, 0xca, 0x3d, 0xd4, 0xa4, 0x8b, 0xbd, 0x4f, 0x1a, 0x85, 0xbd,
  0xa9, 0x34, 0x27, 0x3d, 0x75, 0x74, 0xba, 0x3d, 0xaf, 0x8c, 0xc9, 0x3d,
  0xeb, 0xb8, 0xbc, 0x3d, 0x43, 0xa4, 0xa2, 0x3d, 0x59, 0xfe, 0x87, 0x3d,
  0xed, 0xa0, 0xe2, 0xbd, 0xdf, 0x6e, 0x6f, 0x3b, 0xc6, 0xfd, 0x85, 0x3d,
  0x53, 0x71, 0xe0, 0x3d, 0x91, 0x48, 0xfb, 0xbc, 0xe2, 0x93, 0x1a, 0xbe,
  0x81, 0xf7, 0x13, 0x3c, 0x58, 0x23, 0x12, 0x3e, 0xa0, 0x1a, 0xb4, 0xbd,
  0x7a, 0xbe, 0x54, 0xbd, 0x01, 0x8a, 0xb7, 0x3b, 0x19, 0x11, 0x6a, 0x3d,
  0xb0, 0x70, 0xcc, 0xbd, 0xae, 0xa1, 0x36, 0x3d, 0xa8, 0x0f, 0xfb, 0xbd,
  0x62, 0x2c, 0xc9, 0xbd, 0x36, 0x55, 0x3a, 0xbd, 0x5a, 0x32, 0x06, 0xbe,
  0xe7, 0x27, 0x30, 0xbe, 0xa1, 0x5d, 0x8d, 0xbd, 0x27, 0x08, 0x22, 0x3e,
  0xcc, 0x7c, 0xcc, 0xbd, 0x67, 0x2d, 0x14, 0x3d, 0xc9, 0xfe, 0x16, 0x3c,
  0x80, 0x0d, 0x43, 0x3d, 0x7b, 0xed, 0x87, 0xbb, 0x17, 0x59, 0xe4, 0xbd,
  0x5c, 0xb8, 0xd2, 0x3c, 0xd5, 0x4c, 0x33, 0x3d, 0xb6, 0x9e, 0xd4, 0x3d,
  0x1d, 0xce, 0xc4, 0xbd, 0x48, 0x50, 0x1b, 0x3e, 0xf0, 0x69, 0xf0, 0x3d,
  0xef, 0x20, 0x0b, 0x3e, 0xb8, 0xd6, 0x5b, 0xbd, 0x52, 0x9d, 0x68, 0x3c,
  0x72, 0x9c, 0x87, 0xbd, 0x3b, 0x21, 0xef, 0xbd, 0xfe, 0xa1, 0x1d, 0xbe,
  0x94, 0x7c, 0x19, 0xbe, 0x34, 0xda, 0x50, 0x3c, 0x2d, 0x71, 0x10, 0xbb,
  0x7e, 0x32, 0x1c, 0x3e, 0x4e, 0x8a, 0x4b, 0xbd, 0xd4, 0x1a, 0xc9, 0x3d,
  0x9d, 0x28, 0x1f, 0x3d, 0xe4, 0x65, 0x23, 0x3e, 0x58, 0x51, 0x03, 0x3e,
  0xb9, 0x8d, 0x9c, 0x3d, 0x3d, 0xc5, 0xf2, 0x3d, 0x1a, 0xd6, 0xfc, 0xbd,
  0xed, 0x35, 0xc0, 0x3b, 0x0a, 0x6f, 0xe3, 0x3d, 0x3e, 0x87, 0x0d, 0xbd,
  0x45, 0xaf, 0x8e, 0xbc, 0x86, 0x74, 0x2a, 0xbe, 0xd3, 0x09, 0xef, 0xbc,
  0x18, 0x11, 0x25, 0xbc, 0x3c, 0x63, 0x6d, 0x3d, 0xd9, 0x23, 0xdd, 0x3d,
  0x64, 0x7d, 0x19, 0xbe, 0x3c, 0x0f, 0x82, 0x3a, 0x30, 0x1b, 0x91, 0xbd,
  0xcb, 0x22, 0xdf, 0xbd, 0x9c, 0xbe, 0x07, 0x3e, 0xbe, 0x66, 0xd4, 0x3c,
  0xa8, 0x5b, 0xb9, 0xbd, 0x7c, 0x0f, 0x19, 0xbe, 0xd0, 0x1d, 0x15, 0xbe,
  0x9e, 0x39, 0xfd, 0x3d, 0xc6, 0xf2, 0x27, 0xbd, 0x64, 0x77, 0x27, 0xbe,
  0xb0, 0x53, 0x23, 0x3e, 0x32, 0xea, 0x6d, 0xbd, 0x4b, 0xc2, 0x7d, 0x3c,
  0x0a, 0x33, 0x17, 0x3e, 0x1c, 0xbd, 0xc2, 0x3d, 0x83, 0x4a, 0x86, 0x3d,
  0x23, 0x9b, 0x6a, 0x3d, 0x71, 0xd3, 0x02, 0x3d, 0x13, 0xbd, 0x2a, 0xbe,
  0x52, 0xe9, 0x8f, 0x3d, 0x59, 0x46, 0xe8, 0xbd, 0x1b, 0xb4, 0x92, 0xb6,
  0x00, 0xde, 0x86, 0x3b, 0x40, 0xcc, 0x91, 0xbd, 0x9e, 0xe7, 0x0e, 0x3e,
  0xdc, 0x01, 0xb4, 0x3d, 0xcc, 0x1a, 0x12, 0x3d, 0xb1, 0x0b, 0x28, 0xbe,
  0x6c, 0x00, 0x03, 0xbe, 0x7c, 0xcc, 0xe8, 0xbd, 0xbc, 0x3c, 0x26, 0x3e,
  0x2a, 0xc5, 0x08, 0x3e, 0x6e, 0x77, 0x05, 0x3e, 0x47, 0x1d, 0xd5, 0xbd,
  0x57, 0x5a, 0x90, 0xbd, 0x1c, 0x7e, 0xb2, 0xbd, 0x7a, 0x42, 0x03, 0xbe,
  0x92, 0x4c, 0x03, 0x3e, 0x6e, 0xae, 0x13, 0xbe, 0x87, 0x84, 0xc5, 0x3a,
  0x5b, 0x93, 0xb4, 0xbd, 0xd6, 0x7e, 0xf1, 0x3d, 0x20, 0xb2, 0x8c, 0x3b,
  0x8a, 0xe0, 0x86, 0x3d, 0xb1, 0xe0, 0xef, 0xbd, 0x0e, 0x63, 0xb4, 0x3d,
  0xcd, 0x75, 0x51, 0xbd, 0x6a, 0x4c, 0x15, 0xbd, 0xe1, 0x77, 0x37, 0xbd,
  0xaa, 0x2b, 0xde, 0xbd, 0x4c, 0x87, 0x30, 0xbe, 0xb3, 0x30, 0x29, 0xbe,
  0x60, 0xf4, 0xd2, 0x3c, 0xea, 0x36, 0x9d, 0xbc, 0x2c, 0xbe, 0xf4, 0x3c,
  0x1e, 0xaa, 0x20, 0x3e, 0x4a, 0xb1, 0x11, 0xbe, 0x21, 0xeb, 0x1c, 0xbd,
  0x5f, 0x38, 0x54, 0xbd, 0x21, 0x07, 0x9f, 0xbd, 0x19, 0xcb, 0x37, 0xbd,
  0x18, 0x1f, 0xcc, 0x3d, 0xcd, 0x73, 0xba, 0xbc, 0xea, 0xb5, 0x42, 0x3d,
  0x77, 0xb5, 0xe8, 0xbd, 0x9c, 0xa0, 0x6c, 0xb9, 0xb8, 0xc5, 0x34, 0x3d,
  0x1f, 0xf1, 0xd2, 0xbd, 0x03, 0x57, 0x8f, 0x3c, 0x8b, 0xba, 0x0f, 0xbe,
  0x55, 0x9d, 0x17, 0xbe, 0x75, 0x8d, 0xb7, 0x3d, 0x6c, 0xbc, 0xa0, 0xbd,
  0x66, 0xb5, 0x64, 0xbd, 0xc3, 0x2e, 0x4d, 0xbd, 0x4b, 0x7d, 0x48, 0x3d,
  0x5f, 0xca, 0xee, 0xbc, 0xf1, 0x56, 0xde, 0xbd, 0xf7, 0x7e, 0x1e, 0x3e,
  0x22, 0x53, 0x21, 0x3e, 0x5c, 0xd1, 0xfb, 0x3d, 0xa2, 0x92, 0x04, 0x3d,
  0x7a, 0x1c, 0x08, 0x3e, 0xf8, 0x54, 0xe8, 0x3c, 0x9c, 0x47, 0x82, 0x3d,
  0xba, 0x9d, 0xda, 0x3a, 0x14, 0xd7, 0x94, 0xbd, 0xa0, 0x78, 0xcf, 0x3d,
  0xda, 0x87, 0x25, 0xbb, 0x44, 0x51, 0x72, 0xbd, 0x96, 0x7a, 0x68, 0xbc,
  0x75, 0x2a, 0x46, 0xbc, 0xe6, 0xc0, 0x0b, 0x3c, 0x08, 0x5e, 0xd2, 0x3d,
  0xb4, 0x26, 0x79, 0x3d, 0x69, 0x39, 0x20, 0x3e, 0x01, 0xf7, 0x72, 0x3c,
  0x08, 0x0e, 0x9d, 0xbc, 0x7a, 0xa2, 0xab, 0xbd, 0x69, 0xe4, 0xb8, 0x3d,
  0xe2, 0x75, 0x17, 0xbb, 0xb3, 0x70, 0xdc, 0xbd, 0x4b, 0x56, 0x5f, 0xbc,
  0x14, 0x92, 0x40, 0xbd, 0x81, 0xba, 0xe7, 0x3c, 0xed, 0x78, 0xc6, 0xbd,
  0x47, 0xee, 0x02, 0xbe, 0xfc, 0x1a, 0x86, 0xbd, 0xeb, 0x78, 0xc9, 0xbd,
  0x6b, 0x3d, 0x01, 0xbd, 0xbd, 0x85, 0x97, 0xbc, 0x02, 0x44, 0xeb, 0x3d,
  0xde, 0x60, 0xa3, 0x3c, 0xaf, 0x2e, 0x16, 0x3e, 0xaa, 0x8a, 0xde, 0xbc,
  0x0d, 0x6c, 0x78, 0x3d, 0x41, 0xb7, 0xb8, 0xbd, 0xd4, 0xdf, 0x0c, 0xbd,
  0x10, 0xae, 0xec, 0xbd, 0x35, 0x7f, 0xed, 0x3d, 0x88, 0xeb, 0xce, 0x3c,
  0xa8, 0xb9, 0x19, 0x3e, 0x46, 0xf1, 0x21, 0x3e, 0x43, 0x6e, 0xe3, 0x3d,
  0x66, 0x0a, 0xc2, 0xbb, 0xcd, 0x95, 0xa9, 0xbd, 0x49, 0x80, 0x12, 0xbd,
  0x30, 0x4d, 0x89, 0xbb, 0xae, 0xa5, 0x6a, 0xbd, 0x5a, 0xbb, 0x07, 0x3e,
  0x75, 0x42, 0x99, 0xbb, 0x97, 0x6d, 0x14, 0x3d, 0x90, 0xe0, 0x21, 0xbe,
  0x44, 0xd7, 0x0e, 0x3d, 0xd9, 0x9c, 0x64, 0x3d, 0xa7, 0x93, 0xd4, 0x3d,
  0x94, 0x77, 0x81, 0xbd, 0xd6, 0xc8, 0x8c, 0x3b, 0xc8, 0x04, 0x2c, 0xbe,
  0xcb, 0xbe, 0x2e, 0xbd, 0xba, 0xa1, 0xb7, 0xbb, 0xe4, 0xc7, 0xdf, 0xbd,
  0x01, 0x2b, 0xc0, 0xbc, 0x45, 0x9b, 0x8d, 0x3d, 0x26, 0xfe, 0x61, 0x3c,
  0xca, 0xc3, 0x23, 0x3d, 0xab, 0x33, 0x03, 0xbe, 0xd0, 0x85, 0x1d, 0xbe,
  0x20, 0x7f, 0x17, 0x3d, 0xeb, 0x0a, 0x5b, 0x3d, 0xce, 0x55, 0x23, 0xbe,
  0x6d, 0x51, 0x58, 0x3d, 0x21, 0x08, 0xab, 0x3d, 0x36, 0xf8, 0xff, 0xbd,
  0x38, 0x37, 0x00, 0xbe, 0xca, 0x3f, 0xde, 0x3c, 0xfc, 0xfe, 0x1c, 0x3e,
  0x67, 0x43, 0x46, 0x3d, 0xb1, 0x5d, 0xc5, 0x3c, 0xa0, 0x97, 0xe1, 0xbd,
  0x91, 0xbb, 0x93, 0xbd, 0x44, 0x7b, 0xcd, 0x3a, 0x74, 0x0a, 0xbb, 0xbd,
  0x54, 0x4f, 0xaf, 0xbd, 0x36, 0x61, 0x1d, 0xbe, 0x79, 0x92, 0xeb, 0x3d,
  0x57, 0x61, 0x8d, 0x3d, 0x53, 0x37, 0x04, 0x3e, 0xfc, 0x0f, 0x21, 0x3e,
  0x7b, 0x30, 0x50, 0x3b, 0x54, 0x89, 0x0c, 0x3e, 0xc7, 0xa3, 0xe1, 0x3d,
  0xae, 0xdc, 0x97, 0xbc, 0xe9, 0x77, 0x28, 0x3d, 0xf2, 0xfb, 0xfc, 0x3d,
  0xb9, 0x1c, 0x38, 0x3d, 0x76, 0xbc, 0x22, 0xbe, 0x20, 0x07, 0x0d, 0x3d,
  0xde, 0xa6, 0xc8, 0x3c, 0x5f, 0xb7, 0xd9, 0xbd, 0x5c, 0xca, 0xb3, 0x3c,
  0x90, 0xf9, 0xb0, 0x3d, 0xc9, 0x48, 0xf0, 0x3d, 0xfe, 0xaf, 0x41, 0x3d,
  0x37, 0x82, 0xa7, 0x3d, 0xe5, 0xf0, 0xe7, 0xbd, 0xdd, 0x11, 0xcb, 0x3d,
  0x3c, 0x63, 0x75, 0x3d, 0xda, 0x31, 0x63, 0xbd, 0x78, 0x17, 0x05, 0x3e,
  0x14, 0x80, 0xcd, 0xbc, 0xd6, 0xd3, 0xfa, 0x3d, 0x35, 0x21, 0x3a, 0x3d,
  0xc6, 0x95, 0x1a, 0xbe, 0xd1, 0x47, 0x15, 0x3e, 0x38, 0x4f, 0x33, 0xbe,
  0x79, 0x56, 0x1e, 0xbc, 0x99, 0x5e, 0xbc, 0xbd, 0x3f, 0x7f, 0xae, 0xba,
  0xec, 0x62, 0x01, 0xbd, 0x22, 0xc7, 0x1c, 0x3e, 0x0d, 0x79, 0x09, 0xbe,
  0x02, 0x4b, 0x3a, 0xbd, 0xab, 0xb4, 0xd9, 0x3d, 0xf9, 0x52, 0x07, 0xbe,
  0x36, 0x76, 0x38, 0x3b, 0x6b, 0xdb, 0x80, 0xbd, 0x0f, 0x19, 0x5c, 0x3d,
  0x08, 0x91, 0x85, 0xbc, 0xe0, 0x04, 0x1a, 0xbe, 0x81, 0xf3, 0xcc, 0x3d,
  0x88, 0x04, 0xbb, 0xbd, 0x59, 0x8e, 0xa1, 0xbd, 0xdb, 0xc6, 0x9b, 0xbd,
  0x62, 0x58, 0x17, 0xbe, 0x5d, 0x48, 0x25, 0x3d, 0xd2, 0xa3, 0x10, 0xbb,
  0xca, 0x9b, 0x99, 0x3c, 0x54, 0x72, 0xa3, 0xbd, 0x61, 0x9d, 0x6f, 0x3c,
  0xc3, 0x44, 0x44, 0xbc, 0x76, 0x11, 0x63, 0xba, 0x76, 0xfb, 0x26, 0xbe,
  0x59, 0x1c, 0xcc, 0xbc, 0x4a, 0x59, 0xd5, 0xbd, 0x5c, 0xde, 0x17, 0x3e,
  0x2c, 0xd5, 0x03, 0xbd, 0x6f, 0xe6, 0xf7, 0x3d, 0x1b, 0xdc, 0x07, 0xbe,
  0x04, 0x55, 0x00, 0xbd, 0xa5, 0x5b, 0xef, 0xbc, 0x63, 0xc8, 0xfd, 0xbd,
  0x39, 0x01, 0xf5, 0x3c, 0x36, 0xf6, 0x98, 0x3c, 0x87, 0x9d, 0xd6, 0x3d,
  0x9c, 0x1c, 0x55, 0xbd, 0x49, 0x16, 0x6a, 0x3c, 0x08, 0x25, 0x06, 0x3e,
  0xff, 0xbb, 0xd2, 0xbd, 0x35, 0xd2, 0x47, 0x3d, 0x31, 0xa4, 0x1d, 0x3d,
  0x2c, 0x83, 0xb3, 0xbd, 0xf2, 0xa0, 0x44, 0xbd, 0x83, 0xfe, 0x11, 0xbe,
  0x01, 0x32, 0xd8, 0xbd, 0xc9, 0xac, 0xef, 0x3d, 0x39, 0xd9, 0x17, 0xbe,
  0xdc, 0x7a, 0xe8, 0x3d, 0xbd, 0xf4, 0x5e, 0x3c, 0xc3, 0xb3, 0x39, 0x3d,
  0x1d, 0x8e, 0xa6, 0xbd, 0x9d, 0x92, 0xfb, 0x3d, 0xb7, 0xfb, 0xf3, 0x3d,
  0x42, 0x0c, 0xf0, 0x3c, 0x2b, 0xb2, 0x08, 0xbd, 0xdf, 0x0b, 0x2f, 0xbe,
  0x5c, 0xed, 0xdd, 0xbd, 0x1a, 0x84, 0x85, 0xbc, 0x8c, 0x83, 0x95, 0xbb,
  0x87, 0x57, 0xa7, 0xbc, 0x94, 0x1e, 0xe6, 0x3c, 0x56, 0x7c, 0x14, 0xbe,
  0xbc, 0x9c, 0x2f, 0xbe, 0xde, 0xfe, 0x69, 0xbd, 0x5a, 0xda, 0xac, 0x3d,
  0xb9, 0x57, 0xa6, 0xbc, 0xf9, 0x39, 0x17, 0xbe, 0xc1, 0x35, 0x1f, 0xbe,
  0x24, 0x4c, 0xaf, 0xbb, 0x7f, 0x05, 0xe5, 0x3d, 0x7f, 0x97, 0x6a, 0xbd,
  0xf4, 0x42, 0xed, 0xbc, 0xb5, 0xdb, 0xce, 0x3c, 0xa2, 0x21, 0x16, 0x3e,
  0x2d, 0xd1, 0x17, 0x3e, 0x4b, 0xd2, 0x8b, 0x3d, 0xa1, 0xba, 0x11, 0xbe,
  0xf7, 0xae, 0x54, 0x3d, 0x9c, 0x5c, 0x12, 0xbe, 0x78, 0xe0, 0xed, 0xbd,
  0x52, 0xb2, 0x21, 0x3d, 0xde, 0xb0, 0x0d, 0xbd, 0xe6, 0x0e, 0xc9, 0xbc,
  0x07, 0xa1, 0x0b, 0x3e, 0xee, 0x29, 0xf8, 0x3d, 0x61, 0xb0, 0xa3, 0x3d,
  0xb1, 0x1a, 0xa2, 0x3d, 0xc2, 0x4a, 0x2e, 0xbe, 0xc6, 0xbd, 0x56, 0xbc,
  0x9d, 0x4b, 0x14, 0x3d, 0x5a, 0x62, 0x1e, 0x3e, 0x7a, 0x1b, 0x54, 0xbd,
  0x36, 0x40, 0xd9, 0xbd, 0xb1, 0xd7, 0x6e, 0x3d, 0xde, 0x56, 0x32, 0xbe,
  0x9e, 0x21, 0x31, 0xbe, 0xe0, 0x24, 0x46, 0xbc, 0x4f, 0xfd, 0xc1, 0x3d,
  0x73, 0xd5, 0x94, 0xbc, 0xfa, 0x78, 0xe2, 0x3d, 0x51, 0x3f, 0x34, 0x3d,
  0xae, 0x23, 0xfb, 0x3d, 0x7b, 0x8f, 0x5c, 0x3e, 0x63, 0x04, 0xfb, 0x3d,
  0x3a, 0x39, 0xc8, 0xbd, 0x04, 0x7c, 0x17, 0xbe, 0x59, 0x8e, 0x1e, 0xbd,
  0xe5, 0x45, 0xdd, 0xbd, 0xb3, 0xce, 0x73, 0x3b, 0x24, 0x6c, 0x7a, 0x3d,
  0x56, 0x5d, 0x01, 0x3e, 0x7f, 0xda, 0x4e, 0x3c, 0xfa, 0x03, 0x8c, 0x3d,
  0x35, 0x04, 0x12, 0xbd, 0x0b, 0x16, 0x4f, 0xbd, 0xd7, 0x58, 0x04, 0x3e,
  0xa2, 0x30, 0x58, 0xbd, 0x2a, 0x8a, 0x9e, 0xbd, 0xa2, 0xf0, 0xfd, 0x3c,
  0x1f, 0x33, 0x1e, 0x3d, 0xf2, 0x97, 0x55, 0xbd, 0x02, 0x86, 0x3f, 0x3b,
  0x90, 0x6c, 0xe8, 0xbd, 0xaf, 0x3a, 0xd4, 0xbd, 0x36, 0x03, 0xfc, 0xbd,
  0xe7, 0xa7, 0x02, 0xbe, 0x05, 0x91, 0x83, 0x3b, 0x0b, 0x39, 0x75, 0xbd,
  0x4d, 0x2d, 0x1a, 0x3d, 0x0a, 0x37, 0xb4, 0xbd, 0xa2, 0x79, 0xfa, 0xbd,
  0x68, 0x13, 0x1a, 0xbd, 0x42, 0x99, 0xb3, 0x3d, 0xc9, 0xe4, 0x25, 0x3e,
  0x56, 0xe2, 0x95, 0xbd, 0x98, 0x76, 0x27, 0x3d, 0x72, 0x1a, 0x22, 0xbe,
  0x00, 0x77, 0x0d, 0x3d, 0x12, 0x87, 0x09, 0x3e, 0x4d, 0x06, 0xf4, 0x3d,
  0x96, 0xbc, 0xbd, 0x3d, 0x3f, 0x49, 0x37, 0x3c, 0xa1, 0xac, 0x11, 0xbe,
  0xa9, 0x78, 0x19, 0x3d, 0x98, 0x05, 0x6c, 0x3e, 0xe5, 0x97, 0xc0, 0xbd,
  0x18, 0xbd, 0x7a, 0x3c, 0xc3, 0xe8, 0xde, 0xbd, 0x43, 0xcc, 0xff, 0x3d,
  0x58, 0x25, 0x09, 0x3d, 0xe9, 0xc4, 0x60, 0x3e, 0x06, 0x28, 0x27, 0x3e,
  0x5a, 0xcb, 0x0f, 0x3e, 0x18, 0x77, 0x95, 0x3d, 0x87, 0xb0, 0x00, 0x3e,
  0xb1, 0xf1, 0xd7, 0x3d, 0x0b, 0x5a, 0x69, 0x3e, 0xd5, 0x51, 0x20, 0xbe,
  0xe2, 0x52, 0x20, 0x3d, 0xe4, 0xf6, 0xfc, 0x3d, 0xc4, 0x7e, 0x1e, 0xbe,
  0x8d, 0x91, 0xf5, 0x3d, 0x46, 0xa9, 0x68, 0x3d, 0x5c, 0xc5, 0xd5, 0xbd,
  0xfc, 0x4a, 0xd8, 0xb9, 0x8d, 0xb9, 0xb5, 0xbd, 0x39, 0x08, 0x9a, 0x3d,
  0xd9, 0x90, 0x40, 0x3d, 0x77, 0x99, 0x55, 0x3d, 0x7a, 0xfe, 0xdf, 0xbd,
  0x95, 0xb8, 0x0b, 0x3e, 0xc8, 0x2f, 0xf3, 0xbc, 0xad, 0xeb, 0x04, 0xbe,
  0xc5, 0x08, 0x48, 0x3e, 0xbf, 0x65, 0x4f, 0x3e, 0x29, 0xb7, 0xd2, 0x3d,
  0x70, 0xb5, 0x9e, 0x3d, 0x79, 0xbe, 0xed, 0xbc, 0xcd, 0x24, 0x02, 0xbe,
  0x13, 0x52, 0xdd, 0x3d, 0xb5, 0x53, 0x82, 0x3d, 0xc1, 0xff, 0xd7, 0x3d,
  0x3e, 0xfb, 0x0f, 0x3e, 0xef, 0x81, 0x12, 0xbe, 0x1b, 0x2c, 0x92, 0xbd,
  0x38, 0xed, 0x4b, 0x3e, 0x16, 0xa6, 0x27, 0x3e, 0x72, 0xd4, 0x30, 0x3e,
  0x15, 0xf6, 0xc9, 0xbd, 0xec, 0x34, 0x8d, 0x3d, 0x2d, 0xfe, 0x8d, 0x3c,
  0xfd, 0x3d, 0x20, 0x3e, 0x0a, 0x49, 0x9c, 0x3d, 0xb9, 0xa2, 0x1a, 0x3d,
  0x6e, 0x7c, 0x51, 0x3d, 0xbf, 0x1d, 0x11, 0x3e, 0x9f, 0xc3, 0xf6, 0xbd,
  0x62, 0xfe, 0xcd, 0x3c, 0xc9, 0x5f, 0x49, 0x3e, 0x45, 0xae, 0xef, 0xbd,
  0x16, 0x66, 0xc3, 0x3c, 0xb4, 0x11, 0xe4, 0xbd, 0x0d, 0x96, 0x65, 0xbd,
  0xdb, 0x0b, 0x9f, 0x3e, 0x1b, 0x2c, 0x92, 0x3e, 0x61, 0x69, 0x6f, 0xbd,
  0x2e, 0x03, 0x9a, 0xbb, 0x50, 0x65, 0x7a, 0xbd, 0x62, 0x51, 0x0c, 0xbe,
  0xaf, 0xb7, 0x93, 0x3e, 0x45, 0xfa, 0xa4, 0xbc, 0x91, 0xd0, 0x00, 0x3e,
  0x67, 0x76, 0xc0, 0x3d, 0x6f, 0xea, 0x1e, 0x3e, 0xbf, 0x47, 0xb1, 0x3d,
  0x7b, 0xb1, 0x8b, 0x3d, 0x2a, 0x04, 0x86, 0x3d, 0x87, 0xff, 0x71, 0x3d,
  0xbe, 0xf4, 0x33, 0x3e, 0x2d, 0x75, 0x8d, 0x3d, 0xa4, 0x6c, 0xfd, 0xbb,
  0x66, 0x97, 0x2e, 0x3e, 0xee, 0xf2, 0x5d, 0xbd, 0x6a, 0xa2, 0x86, 0xbd,
  0x55, 0x0f, 0xf5, 0xbd, 0x6f, 0x79, 0x9d, 0x3d, 0xd6, 0x0f, 0x33, 0x3c,
  0xc8, 0x11, 0x52, 0x3e, 0xaf, 0xcf, 0x47, 0xbb, 0xa6, 0x07, 0xc3, 0x3d,
  0x78, 0x21, 0xb6, 0x3c, 0x59, 0x86, 0x13, 0x3d, 0x8c, 0xd9, 0x5c, 0xbd,
  0x30, 0xe4, 0x6b, 0x3e, 0x40, 0xff, 0xfa, 0xbc, 0xdc, 0x25, 0x1f, 0x3e,
  0xcf, 0x23, 0xd0, 0xbd, 0xb4, 0xde, 0x75, 0xbc, 0xd5, 0x6b, 0x99, 0xbb,
  0x3d, 0x57, 0x71, 0x3e, 0x58, 0x64, 0x8b, 0x3e, 0xd5, 0x3d, 0x26, 0x3e,
  0x3f, 0x1b, 0x1f, 0x3e, 0xa5, 0x90, 0x64, 0xbd, 0x95, 0x46, 0xf0, 0x3c,
  0xfd, 0x69, 0x81, 0x3e, 0x43, 0x2e, 0x6a, 0x3e, 0x86, 0x7c, 0x05, 0x3e,
  0x84, 0x88, 0xc7, 0xbd, 0x0d, 0x46, 0x02, 0x3e, 0x34, 0x87, 0x2f, 0x3d,
  0x24, 0x8f, 0x3b, 0x3e, 0x2c, 0x29, 0x81, 0x3e, 0xcb, 0x88, 0xd3, 0xbb,
  0x0d, 0x81, 0x6f, 0xbd, 0x4a, 0x82, 0x47, 0x3b, 0x89, 0x56, 0x16, 0x3e,
  0x3d, 0x4d, 0x8a, 0x3d, 0x70, 0xd8, 0x53, 0x3e, 0x96, 0x7b, 0x49, 0xbb,
  0x48, 0x5d, 0x4d, 0x3c, 0xb5, 0xdd, 0x20, 0x3e, 0x49, 0xed, 0xaa, 0xbd,
  0x57, 0xb9, 0xa6, 0xbd, 0x29, 0x1b, 0x62, 0x3d, 0x53, 0xcf, 0xd3, 0xb9,
  0x2a, 0x7f, 0x26, 0x3e, 0x48, 0xa0, 0xc8, 0xbd, 0x46, 0x3e, 0xc7, 0xbd,
  0x7f, 0x12, 0x3c, 0x3e, 0x04, 0xb3, 0x44, 0x3d, 0x07, 0x53, 0xea, 0xbd,
  0x01, 0x50, 0xba, 0xbd, 0xb0, 0xd9, 0x33, 0x3d, 0xb5, 0x2a, 0x5c, 0x3c,
  0x34, 0xb3, 0x53, 0x3e, 0x9d, 0xc5, 0x99, 0x3e, 0xb5, 0xcb, 0x49, 0x3d,
  0x58, 0x64, 0x71, 0x3d, 0x54, 0xbc, 0xef, 0xbc, 0xcc, 0x5c, 0x17, 0xbe,
  0xf9, 0x46, 0x2b, 0xbe, 0xb8, 0x72, 0x25, 0x3d, 0xc0, 0x40, 0xc5, 0xbc,
  0x08, 0xef, 0xf7, 0xbc, 0xfc, 0xa8, 0x4e, 0xbd, 0x9a, 0x5d, 0xbc, 0x3d,
  0x00, 0xf2, 0xa3, 0xbc, 0xc8, 0x89, 0x8e, 0x3c, 0xd0, 0x8d, 0xe1, 0xbd,
  0x88, 0x28, 0x66, 0xbd, 0x5b, 0x2f, 0x29, 0x3e, 0x5e, 0x6b, 0x1d, 0xbe,
  0xe3, 0x68, 0x20, 0x3e, 0x83, 0xc4, 0x1c, 0xbe, 0xce, 0x9a, 0x33, 0xbd,
  0x69, 0xf5, 0x09, 0x3e, 0xe7, 0xd5, 0x29, 0x3e, 0xb6, 0x57, 0x31, 0xbd,
  0xd0, 0x0d, 0x97, 0x3c, 0xbb, 0xc5, 0x27, 0xbe, 0x8a, 0x93, 0xe8, 0x3d,
  0x76, 0xb6, 0x6a, 0xbd, 0xf9, 0x1f, 0x01, 0xbe, 0x98, 0x6b, 0xe3, 0xbc,
  0x02, 0xbc, 0xf6, 0x3d, 0x7e, 0xef, 0xad, 0xbd, 0x77, 0x0c, 0x11, 0x3e,
  0x78, 0xa2, 0xae, 0xbd, 0xa2, 0x23, 0xb6, 0x3d, 0x00, 0x04, 0xb5, 0xbc,
  0x8e, 0x13, 0x29, 0xbe, 0x60, 0xcd, 0xb7, 0xbc, 0x1c, 0xcd, 0x0a, 0xbe,
  0x5b, 0xc6, 0x06, 0xbe, 0x33, 0xdc, 0x19, 0x3e, 0x24, 0x6d, 0xf9, 0xbd,
  0x65, 0x08, 0x25, 0xbe, 0xc3, 0x52, 0xa0, 0xbd, 0xcc, 0x77, 0x24, 0xbd,
  0xd3, 0x9e, 0x0b, 0x3e, 0xd0, 0x05, 0xf8, 0xbc, 0x39, 0xee, 0x09, 0x3e,
  0xd2, 0xa9, 0x93, 0xbd, 0xc2, 0x4a, 0xe6, 0x3d, 0x98, 0xa5, 0xe7, 0xbd,
  0xd8, 0x1f, 0xe2, 0xbc, 0xa2, 0x78, 0x96, 0xbd, 0x6c, 0x93, 0x1d, 0xbd,
  0x62, 0x8a, 0xba, 0xbd, 0x2c, 0xc2, 0x00, 0x3d, 0x48, 0x99, 0x58, 0xbd,
  0x61, 0xe2, 0x05, 0x3e, 0x80, 0xdb, 0x5e, 0x3b, 0x98, 0x40, 0xa3, 0x3d,
  0xde, 0xe6, 0xed, 0xbd, 0xb9, 0xcb, 0xaa, 0xbd, 0xa1, 0x0b, 0x10, 0x3e,
  0x02, 0xfa, 0x24, 0xbe, 0x5e, 0x10, 0xf0, 0xbd, 0x7f, 0x54, 0x11, 0x3e,
  0xa6, 0xc5, 0xf7, 0x3d, 0x43, 0xaa, 0x1e, 0x3e, 0x70, 0x46, 0xb3, 0xbd,
  0xfa, 0xaf, 0x29, 0xbe, 0x60, 0x37, 0x1c, 0x3c, 0x18, 0x6b, 0x7d, 0x3d,
  0xf7, 0x73, 0x08, 0x3e, 0xa8, 0x5a, 0xec, 0xbd, 0x00, 0x54, 0xe7, 0x3a,
  0x76, 0x8a, 0x8f, 0xbd, 0x99, 0x6d, 0x05, 0x3e, 0xe4, 0x84, 0x8c, 0x3d,
  0x5f, 0xeb, 0x2a, 0x3e, 0xdd, 0x44, 0x14, 0x3e, 0xd0, 0x24, 0x23, 0xbe,
  0xae, 0x2a, 0x08, 0xbe, 0x95, 0x0e, 0x16, 0x3e, 0x90, 0xed, 0x15, 0x3c,
  0x43, 0x5a, 0x22, 0xbe, 0xb8, 0x99, 0xa9, 0xbc, 0x34, 0xf4, 0x0a, 0xbd,
  0xc1, 0xdc, 0xad, 0xbd, 0xf4, 0x4e, 0x15, 0xbd, 0xb1, 0x07, 0x24, 0x3e,
  0x68, 0x04, 0x1a, 0xbd, 0x76, 0xf6, 0xfb, 0x3d, 0xa6, 0x33, 0xe8, 0x3d,
  0xe3, 0x02, 0x1a, 0xbe, 0x88, 0x39, 0xd0, 0xbc, 0xee, 0x15, 0xf1, 0x3d,
  0x8e, 0xa1, 0xec, 0x3d, 0xc0, 0x6b, 0xec, 0x3b, 0x23, 0xa3, 0xd4, 0xbd,
  0x11, 0xfd, 0xcf, 0xbd, 0x0d, 0xad, 0x85, 0xbd, 0x02, 0xdf, 0x24, 0xbe,
  0xe0, 0x4b, 0xbb, 0xbc, 0xae, 0xc9, 0xad, 0x3d, 0xd0, 0x9c, 0x4d, 0xbc,
  0x68, 0xbe, 0xe9, 0xbc, 0x4e, 0x10, 0xd5, 0x3d, 0xb7, 0x2c, 0x82, 0xbd,
  0xc2, 0x3a, 0x1d, 0xbe, 0xd0, 0x32, 0xff, 0xbc, 0xc0, 0xf3, 0x75, 0x3b,
  0xfc, 0x65, 0x06, 0x3d, 0xe9, 0x01, 0x17, 0xbe, 0xef, 0x82, 0x26, 0x3e,
  0xcb, 0xf2, 0x22, 0x3e, 0x10, 0xf6, 0x71, 0x3c, 0x00, 0x4f, 0xef, 0xbc,
  0x20, 0x92, 0x3d, 0x3c, 0x7c, 0xe2, 0x02, 0x3d, 0x30, 0x63, 0x3d, 0x3c,
  0xa6, 0xf3, 0x12, 0xbe, 0x7c, 0xe7, 0x8b, 0x3d, 0x48, 0xa5, 0xda, 0x3c,
  0x40, 0x1c, 0x83, 0x3b, 0x08, 0x53, 0x2b, 0xbe, 0x5c, 0x79, 0x25, 0xbd,
  0x00, 0xf7, 0x90, 0x3d, 0xb7, 0xe8, 0x01, 0xbe, 0x40, 0x5d, 0xf5, 0xbc,
  0x44, 0x5d, 0x0a, 0x3d, 0x20, 0x27, 0xe7, 0xbb, 0x24, 0x4c, 0xc4, 0xbd,
  0x94, 0x4c, 0x74, 0x3d, 0x8d, 0x81, 0xbd, 0xbd, 0x44, 0xc2, 0x11, 0xbe,
  0xaa, 0x58, 0x82, 0x3d, 0x51, 0xd6, 0x89, 0xbd, 0x42, 0x53, 0xe0, 0x3d,
  0x20, 0x1d, 0x11, 0x3d, 0xa0, 0xbc, 0x5f, 0x3c, 0x2a, 0xe2, 0xe9, 0x3d,
  0x27, 0x15, 0x14, 0x3e, 0x57, 0xbe, 0x19, 0x3e, 0x9c, 0xd5, 0xa1, 0xbd,
  0x79, 0x11, 0xbb, 0xbd, 0x8b, 0xdb, 0xb8, 0xbd, 0xa0, 0x4e, 0x18, 0x3d,
  0xde, 0x2f, 0xd9, 0xbd, 0x18, 0xd4, 0xc1, 0xbc, 0x5f, 0xf2, 0x20, 0x3e,
  0x0c, 0x6c, 0x22, 0x3d, 0x5f, 0x6b, 0x0c, 0xbe, 0x0c, 0x13, 0x14, 0x3d,
  0xdf, 0x40, 0x24, 0x3e, 0x82, 0x00, 0x1d, 0xbe, 0x1b, 0xa8, 0x9e, 0xbd,
  0xd2, 0x08, 0xe0, 0xbd, 0x80, 0xb5, 0xb2, 0x3c, 0x07, 0xa0, 0x22, 0x3e,
  0x6e, 0xcc, 0xf9, 0x3d, 0xf1, 0x77, 0xd4, 0xbd, 0x36, 0x57, 0xa2, 0xbd,
  0xdf, 0xf4, 0x01, 0xbe, 0x1d, 0x07, 0x27, 0x3e, 0xb7, 0x34, 0xfb, 0xbd,
  0xbe, 0x95, 0x8d, 0x3d, 0xda, 0x6f, 0xf5, 0xbd, 0x40, 0xe0, 0xfc, 0x3b,
  0x1a, 0xfc, 0x5c, 0xbd, 0xad, 0xe6, 0x02, 0x3e, 0xff, 0x4f, 0x05, 0x3e,
  0xa8, 0x5a, 0x8f, 0x3c, 0x43, 0x98, 0x2b, 0x3e, 0x99, 0x06, 0xd4, 0xbd,
  0x1f, 0xf7, 0x16, 0xbe, 0x00, 0xa8, 0x59, 0xbc, 0x30, 0xe0, 0x28, 0x3c,
  0x9a, 0x93, 0x38, 0xbd, 0xc8, 0x74, 0x14, 0xbe, 0x58, 0xe2, 0x0c, 0x3d,
  0x34, 0xae, 0x11, 0xbe, 0xa7, 0x46, 0x22, 0xbe, 0x5e, 0xcb, 0x8d, 0x3d,
  0x34, 0x3b, 0x82, 0xbd, 0x33, 0xb7, 0x8d, 0xbd, 0x9a, 0xc7, 0x2b, 0x3e,
  0x81, 0x8f, 0x61, 0xbd, 0x97, 0x55, 0x05, 0xbd, 0xbb, 0x32, 0x0e, 0xbe,
  0x1a, 0x13, 0xc0, 0x3d, 0xef, 0x26, 0x22, 0xbe, 0x88, 0x37, 0x41, 0x3e,
  0x18, 0xac, 0x0d, 0xbe, 0x7f, 0x2f, 0xa5, 0x3d, 0x4c, 0x4c, 0x14, 0x3e,
  0xa3, 0xfb, 0x15, 0x3e, 0x74, 0x57, 0xcf, 0x3d, 0x3f, 0xac, 0x38, 0xbd,
  0x50, 0xf2, 0xf0, 0xbd, 0x14, 0x12, 0x4a, 0x3e, 0x00, 0x2a, 0xdc, 0x3c,
  0x3a, 0x23, 0x04, 0xbe, 0xed, 0xf4, 0x11, 0xbd, 0x4e, 0x14, 0xa2, 0xbc,
  0x93, 0xb2, 0xf5, 0xbd, 0x88, 0x95, 0x0e, 0x3e, 0x8e, 0x65, 0xda, 0x3d,
  0xa0, 0x18, 0x06, 0x3e, 0xd8, 0xc5, 0x38, 0xbe, 0x41, 0x04, 0x32, 0x3e,
  0x5c, 0xdc, 0x2e, 0x3d, 0xf9, 0x01, 0xba, 0x3d, 0xae, 0xad, 0x7f, 0xbd,
  0x93, 0xed, 0x00, 0x3e, 0x0a, 0x41, 0x37, 0xbe, 0x9f, 0x0f, 0x00, 0xbe,
  0xdc, 0x59, 0x69, 0xbd, 0x13, 0xf1, 0x91, 0x3e, 0x07, 0x66, 0x88, 0xbd,
  0x13, 0x0d, 0x20, 0x3e, 0xab, 0x8a, 0xd4, 0xbb, 0xff, 0x15, 0xd0, 0xbd,
  0x7c, 0x0e, 0x18, 0x3e, 0xfd, 0x78, 0x50, 0x3d, 0x8d, 0xcd, 0x93, 0x3d,
  0x1d, 0x0e, 0x2e, 0xbe, 0x34, 0x3e, 0xe3, 0xbc, 0x63, 0x00, 0xcf, 0xbd,
  0xc4, 0x3f, 0x4d, 0x3e, 0xb9, 0x35, 0xba, 0x3d, 0xdd, 0x94, 0x2d, 0xbe,
  0x7a, 0xd2, 0x32, 0xbe, 0x84, 0x69, 0xb7, 0x3d, 0x50, 0xd7, 0x14, 0xbe,
  0x8d, 0x0a, 0x02, 0x3e, 0xff, 0x50, 0x34, 0x3d, 0x54, 0xfc, 0x9d, 0xbd,
  0xbf, 0xdd, 0xb3, 0x3d, 0xbc, 0xc7, 0xdb, 0x3d, 0xb7, 0xce, 0x3b, 0xbe,
  0x7b, 0x13, 0xfd, 0x3a, 0x27, 0x96, 0xcf, 0xbc, 0x1f, 0xa6, 0x8f, 0xbb,
  0x3e, 0x5a, 0xcc, 0xbd, 0x9b, 0xbe, 0xff, 0x3d, 0x9c, 0x11, 0xbd, 0x3d,
  0x86, 0x1d, 0x1b, 0xbd, 0x4d, 0xad, 0x61, 0x3e, 0xb3, 0x2d, 0x33, 0xbe,
  0x8f, 0x23, 0xeb, 0xbd, 0xb6, 0x14, 0x0d, 0x3e, 0x95, 0xba, 0x2a, 0xbe,
  0xff, 0x31, 0x5e, 0x3e, 0x53, 0x86, 0x15, 0x3e, 0x6a, 0xcf, 0x67, 0xbd,
  0x37, 0x7b, 0xe5, 0xbd, 0x47, 0x84, 0x21, 0xbc, 0x9a, 0xc5, 0xfa, 0x3d,
  0xa0, 0xf8, 0x82, 0x3e, 0x74, 0x3c, 0x67, 0x3d, 0xf1, 0xb8, 0x03, 0xbd,
  0x3a, 0xc8, 0x99, 0x3d, 0x97, 0xdf, 0x25, 0x3e, 0x5f, 0x96, 0xaf, 0xbb,
  0x81, 0x18, 0x76, 0x3e, 0x25, 0x50, 0x7b, 0x3e, 0xd2, 0xbf, 0x1a, 0xbe,
  0xca, 0x20, 0xb6, 0x3b, 0xbd, 0x7e, 0x11, 0x3e, 0xcb, 0x2a, 0x92, 0x3d,
  0x57, 0x13, 0xc9, 0x3d, 0xc9, 0x6b, 0x54, 0x3e, 0xd9, 0xdd, 0x84, 0xbd,
  0x42, 0xc6, 0x0b, 0x3d, 0x76, 0x37, 0x15, 0x3d, 0x7f, 0xd3, 0x18, 0xbe,
  0x6f, 0x08, 0x8b, 0x3e, 0xca, 0xef, 0xfd, 0x3d, 0x4d, 0x41, 0xfa, 0xbd,
  0x39, 0xf4, 0x2f, 0x3e, 0xd6, 0xf1, 0xd7, 0x3c, 0x67, 0xfb, 0x19, 0xbe,
  0x23, 0xf5, 0x97, 0x3e, 0xc5, 0x66, 0x68, 0x3e, 0x45, 0xcf, 0x9b, 0x3d,
  0xf9, 0x1f, 0x1c, 0xbc, 0x29, 0xa9, 0x92, 0x3d, 0x9c, 0x3a, 0x16, 0xbe,
  0x08, 0xc3, 0x7c, 0x3d, 0x1d, 0xa2, 0x1e, 0x3d, 0x98, 0x81, 0xdf, 0xbb,
  0x0b, 0x03, 0x9d, 0x3d, 0xb8, 0x4e, 0xc1, 0x3d, 0x94, 0xe1, 0x49, 0xbd,
  0x35, 0x32, 0xb2, 0x3e, 0xda, 0x15, 0xba, 0x3e, 0xc7, 0xf7, 0x12, 0x3e,
  0x45, 0x7a, 0x8c, 0xbd, 0x17, 0x9b, 0xeb, 0xbd, 0x83, 0x8f, 0x87, 0x3d,
  0x17, 0x55, 0x15, 0x3e, 0x23, 0x45, 0x4c, 0x3e, 0xdd, 0xa0, 0x13, 0xbc,
  0x48, 0x47, 0x35, 0xbd, 0x65, 0xa9, 0x6f, 0xbc, 0x60, 0x4a, 0xd8, 0xbb,
  0x33, 0xd2, 0x6d, 0x3e, 0x20, 0xc9, 0x83, 0x3e, 0x65, 0x37, 0x0f, 0xbe,
  0x14, 0xf7, 0xa1, 0x3d, 0x11, 0x66, 0xd9, 0xbd, 0x66, 0xa6, 0x6b, 0x3c,
  0xa4, 0xe3, 0x06, 0x3e, 0x11, 0x07, 0xf4, 0x3c, 0x8c, 0x04, 0xc1, 0x3d,
  0x2f, 0xb0, 0x87, 0xbd, 0xff, 0xbd, 0x1e, 0x3d, 0x56, 0x59, 0xe3, 0x3d,
  0xa3, 0xd6, 0xa7, 0x3c, 0x5a, 0xa9, 0x85, 0x3e, 0x65, 0x3a, 0x14, 0x3d,
  0x2b, 0x92, 0xbb, 0xbd, 0x10, 0xf8, 0x22, 0x3e, 0x5e, 0x8d, 0x36, 0x3d,
  0xd1, 0x03, 0x36, 0x3e, 0xf1, 0x7d, 0xb7, 0x3e, 0x9a, 0xba, 0x8b, 0xbd,
  0x3e, 0xa1, 0x99, 0xbd, 0xaa, 0xd5, 0xdb, 0xbb, 0xac, 0xc7, 0xa9, 0xbd,
  0xd2, 0x1c, 0x37, 0x3c, 0x11, 0x22, 0x1b, 0x3e, 0xc1, 0x35, 0x15, 0xbe,
  0x93, 0x87, 0xa6, 0x3d, 0x3a, 0x24, 0xee, 0xbd, 0xd1, 0x55, 0x04, 0xbe,
  0xb8, 0xd7, 0x74, 0x3e, 0xee, 0xea, 0xdb, 0x3d, 0x3f, 0x91, 0xc1, 0xbc,
  0x87, 0x81, 0x10, 0x3d, 0x6b, 0x8d, 0xe9, 0x3d, 0xb5, 0x84, 0x02, 0xbe,
  0xbd, 0xde, 0x91, 0x3d, 0x7c, 0xc5, 0xe9, 0x3d, 0x69, 0x74, 0x74, 0xbd,
  0x74, 0x85, 0x21, 0xbe, 0x39, 0x30, 0x2a, 0xbe, 0x17, 0x1c, 0x3a, 0xbe,
  0x95, 0x47, 0xa0, 0x3d, 0xde, 0xa2, 0x33, 0x3e, 0x0b, 0x30, 0x9c, 0xbd,
  0x37, 0xbb, 0x5b, 0xbe, 0x91, 0x4c, 0x6b, 0xbd, 0xb5, 0x0d, 0x95, 0xbd,
  0xde, 0x14, 0xca, 0x3c, 0xc8, 0x25, 0x90, 0x3e, 0x98, 0xdf, 0xeb, 0x3a,
  0xfe, 0x5b, 0xbf, 0xbd, 0x62, 0xc0, 0x14, 0xbe, 0xa4, 0xa7, 0xab, 0x3b,
  0xbe, 0x43, 0x86, 0x3c, 0xad, 0x66, 0x02, 0x3d, 0x00, 0x35, 0x5b, 0xbe,
  0x46, 0xa8, 0x56, 0xbe, 0xe8, 0x88, 0x48, 0x3d, 0xd8, 0x4c, 0xe7, 0xbb,
  0x9b, 0xed, 0xbb, 0xbd, 0xc6, 0x66, 0x23, 0xbe, 0x9b, 0x46, 0x24, 0x3e,
  0x79, 0xc4, 0xa9, 0x3d, 0x1c, 0x98, 0x09, 0x3e, 0xc3, 0xa5, 0x1c, 0x3e,
  0x3c, 0x55, 0x27, 0x3e, 0x82, 0xee, 0xdf, 0xbd, 0x50, 0x5e, 0x8b, 0xbc,
  0x7a, 0x4d, 0xf9, 0x3b, 0xec, 0xac, 0x55, 0x3e, 0x1b, 0x83, 0x04, 0xbe,
  0x6a, 0xb3, 0xee, 0x3d, 0x8a, 0xcf, 0xfd, 0x3b, 0x19, 0xc4, 0xd3, 0xbd,
  0x19, 0x03, 0x36, 0x3d, 0x0f, 0x7b, 0x8c, 0x3c, 0xf2, 0xcc, 0x90, 0x3d,
  0xfb, 0x39, 0x3d, 0xbd, 0x44, 0xfa, 0x42, 0x3d, 0x11, 0xc7, 0xa8, 0x3d,
  0x96, 0xd0, 0xe4, 0xbd, 0xfd, 0xf3, 0xc7, 0x3d, 0x49, 0x74, 0xf5, 0xbd,
  0x26, 0xdd, 0x08, 0x3d, 0x2b, 0xc5, 0x20, 0xbe, 0xb6, 0x2b, 0xb0, 0xbd,
  0x42, 0xdb, 0xb3, 0xbc, 0x90, 0xe9, 0x3b, 0x3e, 0xae, 0x93, 0x28, 0x3e,
  0x98, 0xb6, 0xc7, 0x3c, 0xe6, 0xb3, 0x25, 0xbd, 0x12, 0x99, 0xbf, 0xbd,
  0x3b, 0x25, 0x16, 0x3e, 0x5d, 0x93, 0xb5, 0x3d, 0x10, 0x93, 0x01, 0x3e,
  0xdf, 0x65, 0x00, 0xbe, 0xb5, 0x0b, 0x17, 0x3e, 0x04, 0x5c, 0x10, 0x3e,
  0x4b, 0xfb, 0x17, 0x3e, 0x69, 0x8f, 0x50, 0x3c, 0x21, 0xae, 0x0d, 0x3e,
  0x1f, 0xa4, 0xc2, 0xbd, 0xa3, 0x49, 0x45, 0xbe, 0x62, 0x50, 0xe7, 0xbc,
  0xec, 0xb4, 0x3d, 0x3e, 0x9e, 0x32, 0xeb, 0xbd, 0x6b, 0x08, 0x98, 0xbc,
  0xfe, 0xd2, 0xb7, 0xbc, 0x4e, 0xdc, 0x22, 0x3c, 0x63, 0xc6, 0x4b, 0x3c,
  0xad, 0x90, 0xde, 0x3d, 0xa2, 0xed, 0x16, 0xbc, 0x72, 0xcd, 0x25, 0x3c,
  0xaf, 0x2f, 0x21, 0xbe, 0x07, 0x1e, 0xe0, 0xbd, 0xcc, 0x15, 0xc7, 0x3b,
  0x24, 0xa3, 0x03, 0x3e, 0x17, 0x91, 0xe7, 0x3d, 0x98, 0xc3, 0x4f, 0x3e,
  0xdc, 0xb4, 0xdb, 0x3d, 0x17, 0xc5, 0x5a, 0xbc, 0x64, 0x67, 0x49, 0x3c,
  0x10, 0x2d, 0xc2, 0xbd, 0xd8, 0xb6, 0xc4, 0x3d, 0x13, 0x26, 0x54, 0x3d,
  0x20, 0x27, 0x15, 0x3d, 0x16, 0xa2, 0xab, 0x3c, 0x94, 0x70, 0xae, 0xbd,
  0xe5, 0x79, 0x98, 0x3d, 0xfc, 0x50, 0x5e, 0xbd, 0x8f, 0x4b, 0x2d, 0x3e,
  0xd3, 0x42, 0x58, 0xbe, 0x6d, 0xaa, 0xfc, 0xbd, 0xb2, 0x59, 0x30, 0xbd,
  0x96, 0x06, 0x00, 0xbe, 0x06, 0xb2, 0xf0, 0x3d, 0xbd, 0xe9, 0x99, 0x3d,
  0xf5, 0x2c, 0x8d, 0xbe, 0x6d, 0x9b, 0xed, 0xbc, 0xb5, 0x84, 0x81, 0x3d,
  0xb0, 0x03, 0xff, 0x3d, 0xcd, 0x9a, 0x98, 0x3d, 0x17, 0xd7, 0xc0, 0x3b,
  0xae, 0x86, 0xf3, 0x3c, 0xd5, 0x4d, 0x8c, 0xbd, 0x41, 0x7e, 0x29, 0x3d,
  0x0b, 0x8a, 0x29, 0xbd, 0x1c, 0xc9, 0x60, 0x3d, 0xf0, 0xf4, 0x8c, 0x3d,
  0x69, 0xab, 0x19, 0xbd, 0x4a, 0x29, 0x56, 0xbd, 0x42, 0xfc, 0x0d, 0x3d,
  0xb5, 0xd3, 0x7c, 0xbd, 0x73, 0x3e, 0x31, 0x3e, 0x38, 0x7d, 0xa5, 0x3d,
  0x6f, 0xd2, 0x81, 0xbe, 0x33, 0x90, 0xae, 0x3b, 0x4d, 0xab, 0x48, 0x3e,
  0xbe, 0x6d, 0xb3, 0x3c, 0x27, 0xad, 0xc1, 0xbd, 0x5d, 0xd1, 0x1a, 0x3e,
  0x91, 0x59, 0x77, 0xbe, 0x32, 0x15, 0x78, 0x3c, 0xd0, 0xca, 0x8c, 0xbd,
  0x7e, 0xd5, 0x78, 0xbd, 0x0a, 0xdd, 0x2a, 0x3e, 0x2b, 0xc5, 0xec, 0xbc,
  0xc6, 0xbd, 0x2e, 0xbe, 0x76, 0xed, 0x7b, 0xbe, 0x10, 0xdc, 0x42, 0x3e,
  0xeb, 0x2d, 0x0d, 0x3c, 0x02, 0x7f, 0xb1, 0xbd, 0x96, 0x17, 0x5e, 0xbd,
  0x67, 0x9b, 0x12, 0xbe, 0xcf, 0x40, 0x6e, 0xbe, 0x69, 0xa4, 0x75, 0x3c,
  0x43, 0x1f, 0x97, 0x3d, 0x32, 0x4f, 0x72, 0xbd, 0x64, 0x54, 0xfa, 0xbd,
  0xb1, 0xa9, 0xb4, 0xbd, 0x09, 0xfb, 0xd7, 0xbd, 0x90, 0x1e, 0x13, 0x3e,
  0xf7, 0x5e, 0x85, 0xbd, 0xfc, 0x08, 0x30, 0x3d, 0x5a, 0x7c, 0x8d, 0x3d,
  0x55, 0xa4, 0x47, 0xbe, 0x63, 0x66, 0x62, 0xbd, 0x34, 0xf7, 0xd8, 0x3d,
  0xf7, 0x29, 0xfa, 0x3c, 0xfe, 0x87, 0x97, 0xbd, 0x5d, 0x05, 0x93, 0x3d,
  0x61, 0x9a, 0x0e, 0xbe, 0x63, 0xb1, 0xab, 0xbd, 0x1e, 0xdb, 0xb1, 0x3d,
  0x9d, 0xe2, 0x35, 0x3e, 0x18, 0x2c, 0x58, 0x3e, 0x51, 0x90, 0x0b, 0x3e,
  0x35, 0x15, 0x9d, 0xbd, 0xf6, 0x16, 0xd6, 0xbd, 0x54, 0x0d, 0x4d, 0x3e,
  0xc5, 0x8c, 0xaa, 0x3c, 0x2f, 0x74, 0x8d, 0x3d, 0xeb, 0x6c, 0x8c, 0x3d,
  0x61, 0xca, 0x98, 0x3d, 0xb0, 0x8d, 0x00, 0xb8, 0xd8, 0xf8, 0x07, 0x3e,
  0xfd, 0x03, 0xa8, 0xbd, 0x98, 0xaa, 0xc0, 0x3d, 0x47, 0x7f, 0xd2, 0xbd,
  0x84, 0xf6, 0x3d, 0xbe, 0x88, 0x98, 0x8b, 0xbe, 0xa4, 0x85, 0x03, 0x3c,
  0x4f, 0xec, 0x97, 0x3d, 0xa2, 0x49, 0x91, 0xbd, 0xe6, 0x7b, 0xc3, 0xbd,
  0x30, 0x13, 0x78, 0x3d, 0xbb, 0x60, 0x5d, 0xbe, 0x1d, 0x01, 0x04, 0x3e,
  0x20, 0x3b, 0xda, 0x3c, 0x9c, 0xf4, 0xf3, 0xbc, 0xf9, 0x17, 0xa3, 0xbd,
  0xc6, 0x81, 0xc1, 0x3d, 0xb3, 0xf5, 0x19, 0xbb, 0x37, 0x82, 0xd8, 0x3d,
  0x87, 0x79, 0x6e, 0x3e, 0xa4, 0x73, 0x5e, 0x3d, 0x71, 0x22, 0x75, 0x3e,
  0xd5, 0xf6, 0xcd, 0x3d, 0xf8, 0x87, 0xca, 0xbd, 0xf5, 0xc1, 0x97, 0x3d,
  0x20, 0x5a, 0xbc, 0xbd, 0x23, 0xcd, 0xec, 0x3d, 0xf9, 0x1b, 0x3d, 0x3e,
  0x88, 0x77, 0xbc, 0xbd, 0x01, 0x50, 0xa2, 0xbd, 0x6b, 0xc0, 0x1c, 0x3d,
  0xa4, 0x9f, 0x6a, 0x3e, 0x2a, 0xef, 0x28, 0x3e, 0x08, 0x25, 0x15, 0x3d,
  0xc8, 0x77, 0x92, 0xbd, 0x3c, 0xbd, 0x04, 0xbd, 0x9e, 0x98, 0x7b, 0xbd,
  0x2d, 0x40, 0xa8, 0x3a, 0xd7, 0x93, 0x17, 0xbe, 0x58, 0xdb, 0xc2, 0x3d,
  0xce, 0xc9, 0xf0, 0xbd, 0x95, 0x51, 0xd7, 0xbd, 0xf4, 0x2c, 0x20, 0xbe,
  0x6b, 0xfc, 0xf4, 0x3d, 0x2c, 0xee, 0x82, 0xbd, 0x2a, 0xde, 0xd7, 0x3d,
  0x20, 0xfc, 0x1e, 0xbe, 0xb7, 0x26, 0x2e, 0x3d, 0xd0, 0xd9, 0x1a, 0x3e,
  0x3c, 0xba, 0x26, 0xbe, 0x93, 0xd2, 0xec, 0x3d, 0x5f, 0x70, 0x04, 0x3c,
  0xcd, 0x6f, 0x9e, 0xbd, 0x6a, 0x9c, 0xe7, 0x3c, 0x29, 0xb3, 0x0e, 0x3e,
  0xf5, 0x0e, 0x87, 0xbd, 0xf2, 0x5a, 0xdd, 0x3d, 0x80, 0xf9, 0x1e, 0x3e,
  0xae, 0x7d, 0xc9, 0x3d, 0xd3, 0xaf, 0x21, 0x3e, 0xb3, 0x9b, 0x36, 0x3c,
  0xe8, 0x55, 0x6e, 0xbd, 0xfc, 0x3d, 0x37, 0xbe, 0x9a, 0xf1, 0x29, 0xbe,
  0x84, 0x9e, 0xc8, 0xbd, 0xa7, 0x78, 0xef, 0xbb, 0x4e, 0xbb, 0xfb, 0xbc,
  0x7b, 0xbc, 0x9b, 0x3c, 0xb6, 0x3e, 0xb2, 0xbd, 0x15, 0xc5, 0x63, 0x3b,
  0xd3, 0x55, 0x18, 0x3d, 0x4f, 0xb4, 0x7e, 0x3c, 0xd3, 0x52, 0x6d, 0xbd,
  0x35, 0x1a, 0x12, 0x3e, 0xd2, 0xcd, 0x77, 0x3d, 0xbd, 0xe4, 0x00, 0xbe,
  0x52, 0x36, 0xc5, 0x3c, 0x13, 0x3c, 0x2e, 0xbe, 0xc0, 0x7e, 0x32, 0xbe,
  0x26, 0x45, 0x85, 0x3d, 0xf7, 0xc6, 0x0d, 0xbe, 0x72, 0x99, 0x8a, 0xbd,
  0xab, 0xce, 0xf0, 0xbd, 0xac, 0xba, 0x4b, 0xbc, 0xe0, 0x28, 0x84, 0xbd,
  0x8a, 0xdf, 0xcd, 0xbd, 0xd9, 0x03, 0x5f, 0xbd, 0x76, 0x94, 0x51, 0xbd,
  0x11, 0x57, 0x23, 0x3e, 0xc9, 0x4e, 0x14, 0xbd, 0xc3, 0x9f, 0x6f, 0x3d,
  0x09, 0x3d, 0x90, 0x3d, 0x97, 0xb8, 0xee, 0xbd, 0x38, 0xbe, 0x0a, 0x3e,
  0xee, 0xed, 0x35, 0x3d, 0x83, 0xfa, 0x1b, 0xbe, 0xdc, 0x3a, 0xd1, 0x3c,
  0xe8, 0x73, 0x1e, 0x3e, 0x2e, 0x3e, 0x03, 0x3e, 0x41, 0xfe, 0x95, 0xbd,
  0x9e, 0x01, 0x95, 0xbd, 0xab, 0x4f, 0x99, 0x3c, 0xe8, 0x36, 0x0e, 0x3e,
  0xe0, 0x5f, 0x02, 0xbd, 0x41, 0xaf, 0x22, 0xbe, 0x98, 0x23, 0x3a, 0x3c,
  0x69, 0x66, 0xad, 0xbd, 0x0d, 0x77, 0xdf, 0xbd, 0x7b, 0xd2, 0x87, 0x3d,
  0x68, 0x05, 0xaa, 0xbd, 0x18, 0x37, 0xba, 0xbd, 0x88, 0xde, 0x34, 0xbe,
  0x79, 0xb1, 0xad, 0xbd, 0x55, 0x1c, 0xcc, 0xbd, 0xbc, 0x81, 0x10, 0xbe,
  0xa3, 0xdd, 0xab, 0x3d, 0xd2, 0x74, 0xca, 0x3c, 0xca, 0x0c, 0x28, 0xbe,
  0x57, 0xa0, 0xd9, 0x3d, 0x16, 0xbf, 0x28, 0xbe, 0x92, 0x17, 0x52, 0x3d,
  0xfa, 0xbd, 0x34, 0x3d, 0x2b, 0xf4, 0xf8, 0x3d, 0x6c, 0x8f, 0xa2, 0xbd,
  0xf8, 0xd3, 0x4c, 0x3d, 0x85, 0x54, 0x83, 0xbd, 0xf8, 0xdb, 0x33, 0xbd,
  0x2e, 0x05, 0xd8, 0xbc, 0x8e, 0x32, 0x42, 0x3d, 0xee, 0xb7, 0x06, 0x3e,
  0x92, 0x24, 0x01, 0x3e, 0x6a, 0x96, 0x1c, 0x3e, 0x57, 0x56, 0x19, 0xbd,
  0x00, 0xb9, 0x14, 0x3e, 0xc0, 0x9c, 0xfc, 0x3d, 0x6b, 0x21, 0x21, 0xbe,
  0xea, 0x82, 0xe2, 0x3d, 0x84, 0xf0, 0xbb, 0xbc, 0x66, 0x86, 0x1f, 0xbe,
  0x53, 0x61, 0xa6, 0x3d, 0xdf, 0x2e, 0x1e, 0x3d, 0xd4, 0x53, 0xe9, 0xbd,
  0x0f, 0x51, 0x05, 0xbd, 0xc3, 0x45, 0x13, 0x3d, 0x37, 0x5e, 0x24, 0x3d,
  0x64, 0x06, 0x58, 0xbd, 0x4b, 0xce, 0x80, 0x3c, 0xd6, 0xb5, 0xec, 0xbc,
  0x41, 0xcc, 0x60, 0x3d, 0xd4, 0x60, 0x77, 0x3d, 0xb5, 0x5b, 0x58, 0x3d,
  0xac, 0x77, 0x2c, 0xbd, 0xfa, 0x55, 0xe9, 0xbd, 0xbe, 0x91, 0xd6, 0xbd,
  0x2d, 0xcc, 0xc9, 0x3d, 0xcd, 0xf1, 0xcb, 0xbd, 0xc1, 0xad, 0xd8, 0x3d,
  0x48, 0x38, 0x47, 0x3d, 0xd7, 0x2a, 0xea, 0xbd, 0x56, 0xb5, 0xc1, 0x3d,
